#if EI_CONFIG_ETHOS_U55_256
/* Generated by Edge Impulse
 *
 * Permission is hereby granted, free of charge, to any person obtaining a copy
 * of this software and associated documentation files (the "Software"), to deal
 * in the Software without restriction, including without limitation the rights
 * to use, copy, modify, merge, publish, distribute, sublicense, and/or sell
 * copies of the Software, and to permit persons to whom the Software is
 * furnished to do so, subject to the following conditions:
 *
 * The above copyright notice and this permission notice shall be included in
 * all copies or substantial portions of the Software.
 *
 * THE SOFTWARE IS PROVIDED "AS IS", WITHOUT WARRANTY OF ANY KIND, EXPRESS OR
 * IMPLIED, INCLUDING BUT NOT LIMITED TO THE WARRANTIES OF MERCHANTABILITY,
 * FITNESS FOR A PARTICULAR PURPOSE AND NONINFRINGEMENT. IN NO EVENT SHALL THE
 * AUTHORS OR COPYRIGHT HOLDERS BE LIABLE FOR ANY CLAIM, DAMAGES OR OTHER
 * LIABILITY, WHETHER IN AN ACTION OF CONTRACT, TORT OR OTHERWISE, ARISING FROM,
 * OUT OF OR IN CONNECTION WITH THE SOFTWARE OR THE USE OR OTHER DEALINGS IN THE
 * SOFTWARE.
 */

#ifndef _EI_CLASSIFIER_TFLITE_TRAINED_H_
#define _EI_CLASSIFIER_TFLITE_TRAINED_H_

#define EI_CLASSIFIER_TFLITE_ARENA_SIZE     2320

#if defined __GNUC__
#define ALIGN(X) __attribute__((aligned(X)))
#elif defined _MSC_VER
#define ALIGN(X) __declspec(align(X))
#elif defined __TASKING__
#define ALIGN(X) __align(X)
#else
#define ALIGN(X)
#endif
ALIGN(16) const unsigned char trained_tflite[] = {
  0x1c, 0x00, 0x00, 0x00, 0x54, 0x46, 0x4c, 0x33, 0x00, 0x00, 0x12, 0x00,
  0x1c, 0x00, 0x18, 0x00, 0x14, 0x00, 0x10, 0x00, 0x0c, 0x00, 0x08, 0x00,
  0x00, 0x00, 0x04, 0x00, 0x12, 0x00, 0x00, 0x00, 0x18, 0x00, 0x00, 0x00,
  0x74, 0x00, 0x00, 0x00, 0x34, 0x1d, 0x00, 0x00, 0xa4, 0x1a, 0x00, 0x00,
  0x40, 0x1d, 0x00, 0x00, 0x03, 0x00, 0x00, 0x00, 0x02, 0x00, 0x00, 0x00,
  0x38, 0x00, 0x00, 0x00, 0x04, 0x00, 0x00, 0x00, 0xd8, 0xff, 0xff, 0xff,
  0x05, 0x00, 0x00, 0x00, 0x04, 0x00, 0x00, 0x00, 0x17, 0x00, 0x00, 0x00,
  0x4f, 0x66, 0x66, 0x6c, 0x69, 0x6e, 0x65, 0x4d, 0x65, 0x6d, 0x6f, 0x72,
  0x79, 0x41, 0x6c, 0x6c, 0x6f, 0x63, 0x61, 0x74, 0x69, 0x6f, 0x6e, 0x00,
  0x08, 0x00, 0x0c, 0x00, 0x08, 0x00, 0x04, 0x00, 0x08, 0x00, 0x00, 0x00,
  0x04, 0x00, 0x00, 0x00, 0x04, 0x00, 0x00, 0x00, 0x13, 0x00, 0x00, 0x00,
  0x6d, 0x69, 0x6e, 0x5f, 0x72, 0x75, 0x6e, 0x74, 0x69, 0x6d, 0x65, 0x5f,
  0x76, 0x65, 0x72, 0x73, 0x69, 0x6f, 0x6e, 0x00, 0x06, 0x00, 0x00, 0x00,
  0x28, 0x1a, 0x00, 0x00, 0x18, 0x1a, 0x00, 0x00, 0xa0, 0x0d, 0x00, 0x00,
  0x5c, 0x00, 0x00, 0x00, 0x38, 0x00, 0x00, 0x00, 0x04, 0x00, 0x00, 0x00,
  0xf6, 0xe5, 0xff, 0xff, 0x04, 0x00, 0x00, 0x00, 0x24, 0x00, 0x00, 0x00,
  0x00, 0x00, 0x00, 0x00, 0x01, 0x00, 0x00, 0x00, 0x06, 0x00, 0x00, 0x00,
  0x00, 0x00, 0x00, 0x00, 0xff, 0xff, 0xff, 0xff, 0xff, 0xff, 0xff, 0xff,
  0x00, 0x00, 0x00, 0x00, 0x00, 0x00, 0x00, 0x00, 0x70, 0x03, 0x00, 0x00,
  0x26, 0xe6, 0xff, 0xff, 0x04, 0x00, 0x00, 0x00, 0x10, 0x00, 0x00, 0x00,
  0x31, 0x2e, 0x31, 0x34, 0x2e, 0x30, 0x00, 0x00, 0x00, 0x00, 0x00, 0x00,
  0x00, 0x00, 0x00, 0x00, 0x00, 0x00, 0x00, 0x00, 0x46, 0xe6, 0xff, 0xff,
  0x04, 0x00, 0x00, 0x00, 0x30, 0x0d, 0x00, 0x00, 0x00, 0x00, 0x00, 0x00,
  0x00, 0x00, 0x00, 0x00, 0x00, 0x00, 0x00, 0x00, 0x00, 0x00, 0x00, 0x00,
  0x00, 0x00, 0x00, 0x00, 0x00, 0x00, 0x00, 0x00, 0x00, 0x00, 0x00, 0x00,
  0x00, 0x00, 0x00, 0x00, 0x00, 0x00, 0x00, 0x00, 0x00, 0x00, 0x00, 0x00,
  0x00, 0x00, 0x00, 0x00, 0x00, 0x00, 0x00, 0x00, 0x00, 0x00, 0x00, 0x00,
  0x00, 0x00, 0x00, 0x00, 0x00, 0x00, 0x00, 0x00, 0x00, 0x00, 0x00, 0x00,
  0x00, 0x00, 0x00, 0x00, 0x00, 0x00, 0x00, 0x00, 0x00, 0x00, 0x00, 0x00,
  0x00, 0x00, 0x00, 0x00, 0x00, 0x00, 0x00, 0x00, 0x00, 0x00, 0x00, 0x00,
  0x00, 0x00, 0x00, 0x00, 0x00, 0x00, 0x00, 0x00, 0x00, 0x00, 0x00, 0x00,
  0x00, 0x00, 0x00, 0x00, 0x00, 0x00, 0x00, 0x00, 0x00, 0x00, 0x00, 0x00,
  0x00, 0x00, 0x00, 0x00, 0x00, 0x00, 0x00, 0x00, 0x00, 0x00, 0x00, 0x00,
  0x00, 0x00, 0x00, 0x00, 0x00, 0x00, 0x00, 0x00, 0x00, 0x00, 0x00, 0x00,
  0x00, 0x00, 0x00, 0x00, 0x00, 0x00, 0x00, 0x00, 0x00, 0x00, 0x00, 0x00,
  0x00, 0x00, 0x00, 0x00, 0x00, 0x00, 0x00, 0x00, 0x00, 0x00, 0x00, 0x00,
  0x00, 0x00, 0x00, 0x00, 0x00, 0x00, 0x00, 0x00, 0x00, 0x00, 0x00, 0x00,
  0x00, 0x00, 0x00, 0x00, 0x00, 0x00, 0x00, 0x00, 0x00, 0x00, 0x00, 0x00,
  0x00, 0x00, 0x00, 0x00, 0x00, 0x00, 0x00, 0x00, 0x00, 0x00, 0x00, 0x00,
  0x00, 0x00, 0x00, 0x00, 0x00, 0x00, 0x00, 0x00, 0x00, 0x00, 0x00, 0x00,
  0x00, 0x00, 0x00, 0x00, 0x00, 0x00, 0x00, 0x00, 0x00, 0x00, 0x00, 0x00,
  0x00, 0x00, 0x00, 0x00, 0x00, 0x00, 0x00, 0x00, 0x00, 0x00, 0x00, 0x00,
  0x00, 0x00, 0x00, 0x00, 0x00, 0x00, 0x00, 0x00, 0x00, 0x00, 0x00, 0x00,
  0x00, 0x00, 0x00, 0x00, 0x00, 0x00, 0x00, 0x00, 0x00, 0x00, 0x00, 0x00,
  0x00, 0x00, 0x00, 0x00, 0x00, 0x00, 0x00, 0x00, 0x00, 0x00, 0x00, 0x00,
  0x00, 0x00, 0x00, 0x00, 0x00, 0x00, 0x00, 0x00, 0x00, 0x00, 0x00, 0x00,
  0x00, 0x00, 0x00, 0x00, 0x00, 0x00, 0x00, 0x00, 0x00, 0x00, 0x00, 0x00,
  0x00, 0x00, 0x00, 0x00, 0x00, 0x00, 0x00, 0x00, 0x00, 0x00, 0x00, 0x00,
  0x00, 0x00, 0x00, 0x00, 0x00, 0x00, 0x00, 0x00, 0x00, 0x00, 0x00, 0x00,
  0x00, 0x00, 0x00, 0x00, 0x00, 0x00, 0x00, 0x00, 0x00, 0x00, 0x00, 0x00,
  0x00, 0x00, 0x00, 0x00, 0x00, 0x00, 0x00, 0x00, 0x00, 0x00, 0x00, 0x00,
  0x00, 0x00, 0x00, 0x00, 0x00, 0x00, 0x00, 0x00, 0x00, 0x00, 0x00, 0x00,
  0x00, 0x00, 0x00, 0x00, 0x00, 0x00, 0x00, 0x00, 0x00, 0x00, 0x00, 0x00,
  0x00, 0x00, 0x00, 0x00, 0x00, 0x00, 0x00, 0x00, 0x00, 0x00, 0x00, 0x00,
  0x00, 0x00, 0x00, 0x00, 0x00, 0x00, 0x00, 0x00, 0x00, 0x00, 0x00, 0x00,
  0x00, 0x00, 0x00, 0x00, 0x00, 0x00, 0x00, 0x00, 0x00, 0x00, 0x00, 0x00,
  0x00, 0x00, 0x00, 0x00, 0x00, 0x00, 0x00, 0x00, 0x00, 0x00, 0x00, 0x00,
  0x00, 0x00, 0x00, 0x00, 0x00, 0x00, 0x00, 0x00, 0x00, 0x00, 0x00, 0x00,
  0x00, 0x00, 0x00, 0x00, 0x00, 0x00, 0x00, 0x00, 0x00, 0x00, 0x00, 0x00,
  0x00, 0x00, 0x00, 0x00, 0x00, 0x00, 0x00, 0x00, 0x00, 0x00, 0x00, 0x00,
  0x00, 0x00, 0x00, 0x00, 0x00, 0x00, 0x00, 0x00, 0x00, 0x00, 0x00, 0x00,
  0x00, 0x00, 0x00, 0x00, 0x00, 0x00, 0x00, 0x00, 0x00, 0x00, 0x00, 0x00,
  0x00, 0x00, 0x00, 0x00, 0x00, 0x00, 0x00, 0x00, 0x00, 0x00, 0x00, 0x00,
  0x00, 0x00, 0x00, 0x00, 0x00, 0x00, 0x00, 0x00, 0x00, 0x00, 0x00, 0x00,
  0x00, 0x00, 0x00, 0x00, 0x00, 0x00, 0x00, 0x00, 0x00, 0x00, 0x00, 0x00,
  0x00, 0x00, 0x00, 0x00, 0x00, 0x00, 0x00, 0x00, 0x00, 0x00, 0x00, 0x00,
  0x00, 0x00, 0x00, 0x00, 0x00, 0x00, 0x00, 0x00, 0x00, 0x00, 0x00, 0x00,
  0x00, 0x00, 0x00, 0x00, 0x00, 0x00, 0x00, 0x00, 0x00, 0x00, 0x00, 0x00,
  0x00, 0x00, 0x00, 0x00, 0x00, 0x00, 0x00, 0x00, 0x00, 0x00, 0x00, 0x00,
  0x00, 0x00, 0x00, 0x00, 0x00, 0x00, 0x00, 0x00, 0x00, 0x00, 0x00, 0x00,
  0x00, 0x00, 0x00, 0x00, 0x00, 0x00, 0x00, 0x00, 0x00, 0x00, 0x00, 0x00,
  0x00, 0x00, 0x00, 0x00, 0x00, 0x00, 0x00, 0x00, 0x00, 0x00, 0x00, 0x00,
  0x00, 0x00, 0x00, 0x00, 0x00, 0x00, 0x00, 0x00, 0x00, 0x00, 0x00, 0x00,
  0x00, 0x00, 0x00, 0x00, 0x00, 0x00, 0x00, 0x00, 0x00, 0x00, 0x00, 0x00,
  0x00, 0x00, 0x00, 0x00, 0x00, 0x00, 0x00, 0x00, 0x00, 0x00, 0x00, 0x00,
  0x00, 0x00, 0x00, 0x00, 0x00, 0x00, 0x00, 0x00, 0x00, 0x00, 0x00, 0x00,
  0x00, 0x00, 0x00, 0x00, 0x00, 0x00, 0x00, 0x00, 0x00, 0x00, 0x00, 0x00,
  0x00, 0x00, 0x00, 0x00, 0x00, 0x00, 0x00, 0x00, 0x00, 0x00, 0x00, 0x00,
  0x00, 0x00, 0x00, 0x00, 0x00, 0x00, 0x00, 0x00, 0x00, 0x00, 0x00, 0x00,
  0x00, 0x00, 0x00, 0x00, 0x00, 0x00, 0x00, 0x00, 0x00, 0x00, 0x00, 0x00,
  0x00, 0x00, 0x00, 0x00, 0x00, 0x00, 0x00, 0x00, 0x00, 0x00, 0x00, 0x00,
  0x00, 0x00, 0x00, 0x00, 0x00, 0x00, 0x00, 0x00, 0x00, 0x00, 0x00, 0x00,
  0x00, 0x00, 0x00, 0x00, 0x00, 0x00, 0x00, 0x00, 0x00, 0x00, 0x00, 0x00,
  0x00, 0x00, 0x00, 0x00, 0x00, 0x00, 0x00, 0x00, 0x00, 0x00, 0x00, 0x00,
  0x00, 0x00, 0x00, 0x00, 0x00, 0x00, 0x00, 0x00, 0x00, 0x00, 0x00, 0x00,
  0x00, 0x00, 0x00, 0x00, 0x00, 0x00, 0x00, 0x00, 0x00, 0x00, 0x00, 0x00,
  0x00, 0x00, 0x00, 0x00, 0x00, 0x00, 0x00, 0x00, 0x00, 0x00, 0x00, 0x00,
  0x00, 0x00, 0x00, 0x00, 0x00, 0x00, 0x00, 0x00, 0x00, 0x00, 0x00, 0x00,
  0x00, 0x00, 0x00, 0x00, 0x00, 0x00, 0x00, 0x00, 0x00, 0x00, 0x00, 0x00,
  0x89, 0x00, 0x00, 0x00, 0x9c, 0x00, 0x00, 0x00, 0xb3, 0x00, 0x00, 0x00,
  0xcc, 0x00, 0x00, 0x00, 0xe9, 0x00, 0x00, 0x00, 0x0a, 0x01, 0x00, 0x00,
  0x30, 0x01, 0x00, 0x00, 0x5c, 0x01, 0x00, 0x00, 0x8e, 0x01, 0x00, 0x00,
  0xc7, 0x01, 0x00, 0x00, 0x08, 0x02, 0x00, 0x00, 0x52, 0x02, 0x00, 0x00,
  0xa7, 0x02, 0x00, 0x00, 0x08, 0x03, 0x00, 0x00, 0x77, 0x03, 0x00, 0x00,
  0xf5, 0x03, 0x00, 0x00, 0x86, 0x04, 0x00, 0x00, 0x2c, 0x05, 0x00, 0x00,
  0xe9, 0x05, 0x00, 0x00, 0xc2, 0x06, 0x00, 0x00, 0xb9, 0x07, 0x00, 0x00,
  0xd4, 0x08, 0x00, 0x00, 0x17, 0x0a, 0x00, 0x00, 0x88, 0x0b, 0x00, 0x00,
  0x2e, 0x0d, 0x00, 0x00, 0x10, 0x0f, 0x00, 0x00, 0x38, 0x11, 0x00, 0x00,
  0xae, 0x13, 0x00, 0x00, 0x7e, 0x16, 0x00, 0x00, 0xb5, 0x19, 0x00, 0x00,
  0x62, 0x1d, 0x00, 0x00, 0x96, 0x21, 0x00, 0x00, 0x63, 0x26, 0x00, 0x00,
  0xe0, 0x2b, 0x00, 0x00, 0x26, 0x32, 0x00, 0x00, 0x52, 0x39, 0x00, 0x00,
  0x84, 0x41, 0x00, 0x00, 0xe2, 0x4a, 0x00, 0x00, 0x97, 0x55, 0x00, 0x00,
  0xd4, 0x61, 0x00, 0x00, 0xd0, 0x6f, 0x00, 0x00, 0xcd, 0x7f, 0x00, 0x00,
  0x13, 0x92, 0x00, 0x00, 0xf6, 0xa6, 0x00, 0x00, 0xd5, 0xbe, 0x00, 0x00,
  0x1e, 0xda, 0x00, 0x00, 0x4d, 0xf9, 0x00, 0x00, 0xf2, 0x1c, 0x01, 0x00,
  0xb0, 0x45, 0x01, 0x00, 0x41, 0x74, 0x01, 0x00, 0x7b, 0xa9, 0x01, 0x00,
  0x50, 0xe6, 0x01, 0x00, 0xd8, 0x2b, 0x02, 0x00, 0x52, 0x7b, 0x02, 0x00,
  0x28, 0xd6, 0x02, 0x00, 0xfb, 0x3d, 0x03, 0x00, 0xa6, 0xb4, 0x03, 0x00,
  0x49, 0x3c, 0x04, 0x00, 0x51, 0xd7, 0x04, 0x00, 0x83, 0x88, 0x05, 0x00,
  0x0b, 0x53, 0x06, 0x00, 0x87, 0x3a, 0x07, 0x00, 0x1d, 0x43, 0x08, 0x00,
  0x88, 0x71, 0x09, 0x00, 0x2f, 0xcb, 0x0a, 0x00, 0x42, 0x56, 0x0c, 0x00,
  0xd2, 0x19, 0x0e, 0x00, 0xf2, 0x1d, 0x10, 0x00, 0xde, 0x6b, 0x12, 0x00,
  0x23, 0x0e, 0x15, 0x00, 0xcf, 0x10, 0x18, 0x00, 0xac, 0x81, 0x1b, 0x00,
  0x7a, 0x70, 0x1f, 0x00, 0x3c, 0xef, 0x23, 0x00, 0x87, 0x12, 0x29, 0x00,
  0xe0, 0xf1, 0x2e, 0x00, 0x2c, 0xa8, 0x35, 0x00, 0x25, 0x54, 0x3d, 0x00,
  0xed, 0x18, 0x46, 0x00, 0xa9, 0x1e, 0x50, 0x00, 0x3f, 0x93, 0x5b, 0x00,
  0x21, 0xab, 0x68, 0x00, 0x3e, 0xa2, 0x77, 0x00, 0x23, 0xbd, 0x88, 0x00,
  0x1c, 0x4a, 0x9c, 0x00, 0xb1, 0xa2, 0xb2, 0x00, 0x30, 0x2d, 0xcc, 0x00,
  0x8d, 0x5e, 0xe9, 0x00, 0x70, 0xbc, 0x0a, 0x01, 0xa3, 0xdf, 0x30, 0x01,
  0xc2, 0x76, 0x5c, 0x01, 0x65, 0x49, 0x8e, 0x01, 0xa8, 0x3b, 0xc7, 0x01,
  0x51, 0x52, 0x08, 0x02, 0x56, 0xb7, 0x52, 0x02, 0x70, 0xbf, 0xa7, 0x02,
  0xeb, 0xef, 0x08, 0x03, 0xaf, 0x05, 0x78, 0x03, 0x80, 0xfd, 0xf6, 0x03,
  0x9d, 0x1c, 0x88, 0x04, 0x91, 0xfb, 0x2d, 0x05, 0xc7, 0x91, 0xeb, 0x05,
  0x59, 0x43, 0xc4, 0x06, 0x6c, 0xf0, 0xbb, 0x07, 0x12, 0x07, 0xd7, 0x08,
  0x6b, 0x97, 0x1a, 0x0a, 0x0c, 0x6b, 0x8c, 0x0b, 0x24, 0x1f, 0x33, 0x0d,
  0x63, 0x43, 0x16, 0x0f, 0x7f, 0x7b, 0x3e, 0x11, 0xa5, 0xa8, 0xb5, 0x13,
  0x66, 0x14, 0x87, 0x16, 0x6a, 0xa5, 0xbf, 0x19, 0xff, 0x1b, 0x6e, 0x1d,
  0xc2, 0x52, 0xa3, 0x21, 0x6b, 0x8e, 0x72, 0x26, 0x15, 0xd4, 0xf1, 0x2b,
  0x7e, 0x4f, 0x3a, 0x32, 0x2b, 0xc5, 0x68, 0x39, 0x27, 0x17, 0x9e, 0x41,
  0x4e, 0xda, 0xff, 0x4a, 0x5e, 0x04, 0xb9, 0x55, 0x36, 0xad, 0xfa, 0x61,
  0xa1, 0xf5, 0xfc, 0x6f, 0xff, 0xff, 0xff, 0x7f, 0x0c, 0x00, 0x00, 0x00,
  0x00, 0x00, 0x00, 0x00, 0x00, 0x00, 0x00, 0x00, 0x00, 0x00, 0x00, 0x00,
  0x23, 0x00, 0x00, 0x00, 0x00, 0x00, 0x00, 0x00, 0x00, 0x00, 0x00, 0x00,
  0x00, 0x00, 0x00, 0x00, 0x01, 0x00, 0x00, 0x00, 0x00, 0x00, 0x00, 0x00,
  0x00, 0x00, 0x00, 0x00, 0x00, 0x00, 0x00, 0x00, 0x00, 0x00, 0x00, 0x40,
  0x00, 0x00, 0x00, 0x00, 0x00, 0x00, 0x00, 0x00, 0x00, 0x00, 0x00, 0x00,
  0xff, 0xff, 0xff, 0x7f, 0x00, 0x00, 0x00, 0x00, 0x00, 0x00, 0x00, 0x00,
  0x00, 0x00, 0x00, 0x00, 0xc4, 0xc3, 0xc3, 0xc3, 0x00, 0x00, 0x00, 0x00,
  0x00, 0x00, 0x00, 0x00, 0x00, 0x00, 0x00, 0x00, 0x5a, 0x5a, 0x5a, 0x5a,
  0x00, 0x00, 0x00, 0x00, 0x00, 0x00, 0x00, 0x00, 0x00, 0x00, 0x00, 0x00,
  0x00, 0x00, 0x00, 0x20, 0x00, 0x00, 0x00, 0x00, 0x00, 0x00, 0x00, 0x00,
  0x00, 0x00, 0x00, 0x00, 0x04, 0x00, 0x00, 0x00, 0x00, 0x00, 0x00, 0x00,
  0x00, 0x00, 0x00, 0x00, 0x00, 0x00, 0x00, 0x00, 0x02, 0x00, 0x00, 0x00,
  0x00, 0x00, 0x00, 0x00, 0x00, 0x00, 0x00, 0x00, 0x00, 0x00, 0x00, 0x00,
  0xeb, 0x01, 0x00, 0x00, 0x00, 0xb1, 0x52, 0x0d, 0x62, 0x25, 0x1c, 0xfe,
  0xff, 0xff, 0xff, 0xa4, 0xce, 0x3b, 0x47, 0x25, 0x42, 0xee, 0xff, 0xff,
  0xff, 0xc2, 0x7d, 0x48, 0x45, 0x26, 0x8d, 0xec, 0xff, 0xff, 0xff, 0xed,
  0x6f, 0xc2, 0x4b, 0x26, 0x85, 0xf8, 0xff, 0xff, 0xff, 0x21, 0x3d, 0x11,
  0x62, 0x26, 0x22, 0xfe, 0xff, 0xff, 0xff, 0xcf, 0x41, 0x88, 0x5f, 0x26,
  0x2f, 0xf5, 0xff, 0xff, 0xff, 0xbc, 0x65, 0xfc, 0x60, 0x26, 0x33, 0xfc,
  0xff, 0xff, 0xff, 0x8d, 0xab, 0x34, 0x56, 0x25, 0x90, 0x09, 0x54, 0xf1,
  0xcd, 0xf1, 0xf0, 0xef, 0xb2, 0x60, 0xf0, 0xa3, 0x70, 0xb3, 0x81, 0x01,
  0x81, 0x70, 0x20, 0x70, 0x34, 0x04, 0x94, 0x83, 0x83, 0x62, 0xd2, 0x41,
  0x31, 0xd1, 0xc0, 0xb0, 0x07, 0xf6, 0xd5, 0xf5, 0x84, 0xc1, 0x00, 0xd0,
  0xb2, 0xb5, 0x0a, 0xaa, 0x78, 0xd4, 0x00, 0x88, 0x02, 0x01, 0x80, 0x86,
  0xc8, 0x94, 0x1c, 0x58, 0xec, 0x1d, 0x00, 0xbc, 0x57, 0x0f, 0x08, 0x0e,
  0xe7, 0x50, 0xc2, 0xfc, 0xde, 0x8e, 0x9d, 0xb5, 0x77, 0x01, 0xa0, 0x2e,
  0x83, 0xcf, 0xf6, 0x75, 0x9d, 0xfa, 0xe1, 0xa4, 0x13, 0xcc, 0xae, 0x03,
  0xc0, 0xbf, 0xa3, 0x1b, 0x9c, 0x55, 0x0e, 0x7e, 0xd6, 0x56, 0xea, 0x32,
  0x18, 0xce, 0x03, 0xbf, 0x81, 0x49, 0x48, 0x3f, 0x68, 0x19, 0x5f, 0x75,
  0x92, 0x1b, 0x00, 0x8c, 0xbd, 0x80, 0xf2, 0xe3, 0x63, 0xe9, 0xfe, 0x9b,
  0x2f, 0x00, 0xdc, 0x22, 0x6e, 0x5c, 0xe9, 0xfb, 0xd9, 0x38, 0x80, 0x54,
  0x6d, 0x06, 0x07, 0x80, 0x1f, 0x19, 0xdf, 0x1f, 0x62, 0x63, 0x65, 0x53,
  0xad, 0xe5, 0xd9, 0x7f, 0x03, 0x80, 0xdb, 0xa3, 0x38, 0x6f, 0xde, 0x88,
  0x46, 0x5e, 0x7b, 0x11, 0x0a, 0x34, 0x9f, 0x03, 0x00, 0x67, 0x31, 0x84,
  0x57, 0xf3, 0xa4, 0x01, 0x00, 0x1a, 0x9f, 0x10, 0x56, 0xed, 0x23, 0x77,
  0x6f, 0xbf, 0x70, 0x54, 0x0e, 0x12, 0xe1, 0x78, 0x03, 0xc0, 0xbf, 0x54,
  0x67, 0x57, 0xb4, 0xbd, 0xff, 0x05, 0xb5, 0xcc, 0x3b, 0xff, 0x5b, 0x94,
  0xc9, 0x0b, 0x00, 0xb7, 0xb9, 0xf9, 0x38, 0x32, 0xff, 0xca, 0x23, 0xec,
  0xe7, 0x58, 0x08, 0x00, 0xf5, 0xec, 0x3d, 0xa9, 0x58, 0x01, 0x05, 0x00,
  0x57, 0xf0, 0x81, 0x40, 0x36, 0x74, 0x8c, 0xa8, 0xff, 0x5f, 0xff, 0x6d,
  0x12, 0x79, 0x08, 0x19, 0xff, 0xbf, 0x4c, 0x00, 0x14, 0x0d, 0x1f, 0x3d,
  0xff, 0xff, 0xff, 0xff, 0xff, 0xe0, 0x40, 0x1a, 0x0e, 0x86, 0x55, 0x07,
  0x8f, 0xae, 0x5f, 0x7b, 0xc6, 0x57, 0x08, 0x82, 0x83, 0x4b, 0xf7, 0x4a,
  0x70, 0x25, 0x37, 0x20, 0xe4, 0xe0, 0x80, 0x03, 0x0a, 0xa8, 0xba, 0x9b,
  0xc1, 0x0a, 0x27, 0xe9, 0x16, 0xbb, 0xf0, 0x1d, 0xfc, 0x92, 0x67, 0x61,
  0x17, 0xae, 0x02, 0x0e, 0x2e, 0xb5, 0x31, 0xf9, 0x60, 0x06, 0xe3, 0xe0,
  0x7d, 0x6d, 0xe0, 0xd0, 0xc7, 0xdc, 0x4a, 0xc5, 0xf1, 0xa2, 0x36, 0xd4,
  0xc1, 0x43, 0x19, 0xc0, 0x3f, 0x47, 0xba, 0xc1, 0xa1, 0x9e, 0xda, 0xc5,
  0x85, 0x68, 0x1d, 0xf0, 0xc6, 0x3b, 0xf8, 0xf7, 0x52, 0xe4, 0xd3, 0x99,
  0xb8, 0x11, 0x1c, 0x72, 0xde, 0x20, 0x65, 0x9a, 0xee, 0xe0, 0x36, 0xd1,
  0x45, 0x07, 0xa9, 0x04, 0x00, 0x00, 0x07, 0x4a, 0x1f, 0x37, 0x34, 0x0b,
  0x00, 0x38, 0xde, 0x36, 0x10, 0xdc, 0x00, 0x00, 0x05, 0x00, 0xfe, 0x01,
  0xca, 0xfe, 0xff, 0xff, 0xff, 0xff, 0xff, 0xff, 0xff, 0xff, 0xff, 0xff,
  0xd0, 0xf9, 0xff, 0xff, 0xff, 0x8f, 0x41, 0x2a, 0x59, 0x25, 0xce, 0x04,
  0x00, 0x00, 0x00, 0x91, 0x85, 0x7d, 0x72, 0x25, 0xef, 0xfd, 0xff, 0xff,
  0xff, 0xff, 0x21, 0xa6, 0x66, 0x25, 0xe2, 0xf9, 0xff, 0xff, 0xff, 0x4a,
  0x0e, 0xd8, 0x4a, 0x25, 0xed, 0x07, 0x00, 0x00, 0x00, 0x77, 0x21, 0xcc,
  0x5f, 0x25, 0x50, 0x00, 0x00, 0x00, 0x00, 0xbf, 0x3e, 0xed, 0x5a, 0x25,
  0x5c, 0xfa, 0xff, 0xff, 0xff, 0xf5, 0x02, 0xaa, 0x6f, 0x25, 0x9b, 0x03,
  0x00, 0x00, 0x00, 0x62, 0x2f, 0x30, 0x41, 0x24, 0xf3, 0xfc, 0xff, 0xff,
  0xff, 0xd0, 0xb1, 0xea, 0x67, 0x25, 0xe1, 0xff, 0xff, 0xff, 0xff, 0x4e,
  0x2d, 0xa7, 0x59, 0x25, 0x43, 0xf8, 0xff, 0xff, 0xff, 0xcc, 0x71, 0x09,
  0x63, 0x25, 0x2c, 0x00, 0x00, 0x00, 0x00, 0x67, 0x01, 0xdf, 0x64, 0x25,
  0xf2, 0xfb, 0xff, 0xff, 0xff, 0x1b, 0x10, 0x94, 0x58, 0x25, 0x6b, 0x06,
  0x00, 0x00, 0x00, 0x25, 0x42, 0x00, 0x78, 0x25, 0x45, 0x02, 0x00, 0x00,
  0x00, 0xc1, 0x9b, 0xe2, 0x51, 0x25, 0x74, 0xf8, 0xff, 0xff, 0xff, 0x37,
  0x58, 0x9a, 0x50, 0x25, 0xd8, 0x0b, 0x5c, 0x01, 0x0c, 0x00, 0x89, 0x59,
  0x0f, 0xa0, 0x0e, 0x65, 0x5e, 0x32, 0x00, 0xd0, 0x9f, 0xb3, 0xd8, 0xa8,
  0x51, 0x97, 0xb7, 0x03, 0x00, 0xd5, 0x95, 0x71, 0x5f, 0x36, 0x15, 0xa7,
  0xfd, 0x81, 0xbb, 0x0f, 0x0f, 0x20, 0x47, 0xb3, 0xd0, 0x00, 0x90, 0xf7,
  0xf5, 0x13, 0xab, 0xf2, 0x39, 0x09, 0x01, 0x00, 0xb7, 0x95, 0x7f, 0xaf,
  0x90, 0x34, 0x3f, 0x57, 0x04, 0x92, 0x7b, 0x5d, 0x1d, 0x3e, 0x01, 0x34,
  0x00, 0xf0, 0xd9, 0x2f, 0x36, 0x11, 0x75, 0x80, 0x72, 0x06, 0x00, 0x92,
  0x2f, 0x73, 0x0e, 0x41, 0x4d, 0x0c, 0xb0, 0x9f, 0x8f, 0x91, 0x22, 0x06,
  0x85, 0x1e, 0x59, 0x00, 0x90, 0xf1, 0xf2, 0x8a, 0x8f, 0x50, 0x79, 0xd6,
  0x06, 0x00, 0x45, 0x73, 0x47, 0xfc, 0x3e, 0x65, 0x13, 0x3c, 0xaf, 0xa7,
  0x9f, 0xa1, 0x25, 0x83, 0x39, 0x2e, 0x00, 0xd0, 0x5f, 0xfc, 0xb7, 0x5b,
  0x00, 0x79, 0x5f, 0x00, 0x00, 0x23, 0x13, 0x4c, 0xe1, 0x1b, 0x0e, 0x19,
  0x5d, 0x69, 0x93, 0x1d, 0x08, 0x22, 0x6a, 0x41, 0x75, 0x00, 0x21, 0x31,
  0x16, 0xe6, 0xf2, 0x10, 0xa1, 0xc4, 0x0f, 0x00, 0x8d, 0x2f, 0x39, 0xaa,
  0x81, 0x49, 0xd1, 0x6d, 0x19, 0x7b, 0x2d, 0x27, 0x67, 0x4c, 0xd1, 0xcc,
  0x00, 0xf0, 0x95, 0x54, 0xb3, 0xb0, 0x34, 0x43, 0x66, 0x02, 0x00, 0xbb,
  0x75, 0xd2, 0x17, 0x67, 0xfd, 0x69, 0xd9, 0xaf, 0x2e, 0xe3, 0x76, 0x72,
  0x15, 0x2a, 0x25, 0x00, 0xf0, 0x52, 0xd0, 0x3f, 0x31, 0x93, 0x52, 0xdb,
  0xfe, 0xff, 0x8f, 0x1d, 0x13, 0x40, 0x60, 0x69, 0x32, 0xdb, 0xff, 0x7f,
  0x68, 0x91, 0x16, 0xc3, 0x10, 0x40, 0x77, 0xfa, 0xff, 0xff, 0xff, 0xff,
  0x0f, 0x00, 0x00, 0xe1, 0x31, 0x25, 0xb6, 0x29, 0x31, 0x79, 0x09, 0x00,
  0x70, 0x92, 0x34, 0x52, 0x91, 0x74, 0xa5, 0x95, 0x16, 0x00, 0x8f, 0x2d,
  0x0d, 0x00, 0xa3, 0x26, 0x12, 0x33, 0xc5, 0x49, 0x60, 0x00, 0x96, 0x3f,
  0x85, 0x77, 0x00, 0x00, 0xc5, 0x44, 0x15, 0x5e, 0x54, 0xb9, 0xe2, 0x00,
  0x00, 0x88, 0x60, 0xfd, 0xb6, 0xab, 0x65, 0x48, 0x15, 0x4f, 0x6c, 0x11,
  0x2d, 0x53, 0x11, 0xfd, 0x53, 0x00, 0xf0, 0xb3, 0x43, 0x2c, 0x43, 0x62,
  0xd6, 0x7f, 0x0a, 0x00, 0xb4, 0x25, 0x37, 0x22, 0x00, 0x46, 0x2d, 0x15,
  0x31, 0x15, 0x9c, 0x1e, 0x08, 0xa1, 0x4d, 0x55, 0x00, 0x20, 0x1d, 0xd2,
  0x1f, 0x41, 0x65, 0x58, 0x94, 0x08, 0x00, 0x29, 0x1d, 0xb6, 0x7b, 0x7e,
  0xfc, 0xe1, 0x9d, 0x80, 0x2d, 0x30, 0x8b, 0xe7, 0xdd, 0x19, 0x10, 0x00,
  0x90, 0x75, 0x73, 0xea, 0x70, 0x7a, 0x96, 0x32, 0x00, 0x00, 0x9f, 0x39,
  0x0e, 0x05, 0xfc, 0x68, 0x1f, 0x7d, 0x46, 0x45, 0x14, 0x00, 0x7c, 0x4a,
  0xc7, 0xc3, 0x00, 0x08, 0x11, 0x93, 0x21, 0x2b, 0xf0, 0xf2, 0x30, 0x00,
  0x00, 0x3d, 0x5f, 0x02, 0x11, 0xfc, 0x2b, 0x31, 0x0f, 0x3b, 0x4d, 0xbb,
  0x35, 0x17, 0x11, 0x83, 0x0d, 0x00, 0x90, 0x71, 0x52, 0xb1, 0xe1, 0x3c,
  0xde, 0x1f, 0x00, 0x00, 0x07, 0x20, 0x25, 0xa5, 0xd9, 0x45, 0x9c, 0x2b,
  0x67, 0x9f, 0x18, 0x59, 0x79, 0x63, 0x7b, 0x7d, 0x00, 0x50, 0x08, 0xa1,
  0x50, 0x34, 0x00, 0xc0, 0xf9, 0x07, 0xf0, 0xc4, 0xff, 0xff, 0xff, 0xff,
  0xff, 0xff, 0xff, 0xff, 0xff, 0xff, 0xff, 0xff, 0xff, 0xff, 0xff, 0xff,
  0x15, 0x05, 0x00, 0x00, 0x00, 0xfb, 0x7e, 0xc1, 0x57, 0x28, 0xbd, 0xfe,
  0xff, 0xff, 0xff, 0xfb, 0x7e, 0xc1, 0x57, 0x28, 0xb9, 0xfc, 0xff, 0xff,
  0xff, 0xfb, 0x7e, 0xc1, 0x57, 0x28, 0x00, 0x00, 0x58, 0x13, 0x54, 0x01,
  0xac, 0xbb, 0x00, 0x30, 0xc6, 0xf3, 0x79, 0xab, 0xbe, 0x1a, 0x2c, 0x53,
  0xc9, 0x02, 0x00, 0x58, 0x31, 0xae, 0xa9, 0x0c, 0xae, 0xf6, 0xff, 0x4c,
  0xb7, 0xe4, 0x48, 0xff, 0x8b, 0x20, 0xfe, 0x1f, 0x9a, 0xca, 0x04, 0x04,
  0x46, 0xfd, 0xff, 0x03, 0x18, 0x3d, 0x00, 0x4c, 0x2e, 0xb6, 0xff, 0x89,
  0xf4, 0x7f, 0xc4, 0xdf, 0xf6, 0x08, 0xfe, 0x49, 0xf9, 0x0d, 0x1a, 0xc7,
  0xff, 0x5b, 0xe9, 0x6c, 0x03, 0x92, 0x1e, 0xf9, 0xff, 0xff, 0x50, 0x5d,
  0x00, 0x00, 0x5a, 0x0a, 0x80, 0xb7, 0xea, 0x88, 0x2f, 0x2f, 0x8a, 0xa5,
  0x61, 0x64, 0xfd, 0x7f, 0x18, 0x6e, 0x4c, 0x75, 0x75, 0xc3, 0xfe, 0x5f,
  0xb1, 0xf3, 0x74, 0x6a, 0x07, 0x33, 0xf5, 0xff, 0x00, 0x22, 0x77, 0x00,
  0x90, 0x5d, 0x86, 0xff, 0xb7, 0x5e, 0x3a, 0x40, 0xae, 0x62, 0xff, 0x5f,
  0x68, 0xc2, 0xcc, 0x75, 0x1b, 0xfe, 0xff, 0x01, 0x16, 0x00, 0x00, 0x6c,
  0x59, 0xf0, 0xaf, 0x55, 0xbb, 0xf0, 0x03, 0x99, 0x3d, 0x0f, 0xfd, 0xff,
  0x6f, 0x81, 0x65, 0xe6, 0x00, 0x86, 0xe4, 0xff, 0x7f, 0xe5, 0xa6, 0x01,
  0x9f, 0x63, 0xfe, 0x01, 0x00, 0x54, 0x17, 0xe0, 0xc1, 0x9d, 0xf2, 0xff,
  0x00, 0xc7, 0x44, 0x79, 0xa8, 0x54, 0xd3, 0xff, 0x0f, 0xb4, 0x8c, 0x02,
  0xf8, 0xdd, 0x99, 0x0a, 0xff, 0x0f, 0x00, 0x57, 0x13, 0x00, 0x7c, 0xbb,
  0x92, 0x9d, 0xd0, 0xd7, 0xba, 0x26, 0x7f, 0xff, 0x1f, 0xee, 0x62, 0x39,
  0xa6, 0xd1, 0x24, 0xfc, 0xff, 0x42, 0xb5, 0x9b, 0xb6, 0xd7, 0xff, 0x7f,
  0x00, 0x2a, 0x06, 0x00, 0xc4, 0x1c, 0xf0, 0x1f, 0x00, 0xe6, 0x57, 0x3c,
  0x0c, 0x17, 0xe1, 0xff, 0x8f, 0x02, 0x99, 0x8a, 0xd0, 0x61, 0x71, 0xff,
  0xff, 0x7f, 0x00, 0x00, 0x42, 0xba, 0xef, 0x02, 0xbc, 0xac, 0xd3, 0x5e,
  0x67, 0x37, 0x2c, 0x9b, 0x71, 0xff, 0xcf, 0x39, 0x9d, 0x62, 0x0f, 0x45,
  0xfc, 0xff, 0x28, 0x74, 0x40, 0xef, 0xf7, 0xfb, 0x7f, 0x00, 0x28, 0x46,
  0x00, 0x90, 0x67, 0xf1, 0xff, 0xbd, 0xb4, 0x44, 0x13, 0xcc, 0x72, 0x5f,
  0xff, 0x0f, 0x5c, 0x62, 0x69, 0xc0, 0xff, 0x7f, 0x00, 0xef, 0x04, 0x80,
  0x6c, 0xb4, 0xdc, 0xfa, 0x30, 0x14, 0x8e, 0x5c, 0x56, 0xf8, 0x97, 0xdd,
  0x72, 0x77, 0x34, 0x3a, 0xfc, 0xbf, 0xfc, 0x2f, 0x9d, 0x2f, 0xd9, 0xfb,
  0xff, 0x7f, 0x58, 0x3f, 0x00, 0x90, 0x33, 0x87, 0x00, 0x2f, 0xbb, 0x21,
  0x1b, 0x6b, 0x57, 0xfc, 0xde, 0xff, 0xb7, 0xad, 0x24, 0x51, 0xd6, 0x79,
  0x6e, 0x33, 0xf2, 0xff, 0x2b, 0x95, 0xc2, 0xa7, 0xff, 0x37, 0xc8, 0xcd,
  0x08, 0x0b, 0x3d, 0x00, 0xe0, 0xbf, 0x00, 0x90, 0xe8, 0xbe, 0x29, 0x19,
  0xe3, 0xdf, 0xbf, 0xcd, 0xfe, 0x7f, 0xd4, 0x42, 0x58, 0x8f, 0x42, 0xf4,
  0xff, 0xff, 0xff, 0x00, 0xa1, 0x0f, 0x00, 0xaf, 0xd1, 0xae, 0x18, 0xe4,
  0x83, 0x2f, 0x5f, 0x5d, 0xe1, 0xbf, 0xaa, 0x2c, 0xff, 0x46, 0x60, 0x96,
  0xff, 0xff, 0x0b, 0x32, 0xc0, 0x44, 0xe0, 0xff, 0xff, 0x41, 0xcb, 0x01,
  0xe0, 0x18, 0xa5, 0x00, 0xdf, 0x55, 0x0a, 0x70, 0x91, 0x51, 0xe8, 0xed,
  0xff, 0x6b, 0x39, 0xac, 0xd7, 0xb5, 0x76, 0xff, 0x7f, 0x6b, 0x16, 0xc7,
  0x83, 0xf8, 0xff, 0x00, 0xe0, 0x9f, 0x30, 0x17, 0x1c, 0x00, 0xd4, 0x38,
  0x42, 0xf0, 0x3f, 0x19, 0x46, 0xa5, 0xff, 0xbf, 0x8c, 0x65, 0x18, 0xc7,
  0x6c, 0xc8, 0xff, 0xd3, 0x20, 0x87, 0x51, 0xbe, 0xec, 0xff, 0x7f, 0x80,
  0xfe, 0x07, 0x80, 0x00, 0xe8, 0x26, 0xfc, 0x07, 0x60, 0x92, 0x3b, 0xc4,
  0xd6, 0x7f, 0x83, 0xff, 0x1f, 0xf9, 0x0f, 0x44, 0x6d, 0xca, 0x97, 0xfc,
  0xff, 0x7f, 0xe8, 0x4f, 0x00, 0xc0, 0xac, 0xb4, 0x00, 0x0f, 0x36, 0x53,
  0x50, 0xcc, 0xc6, 0x1a, 0xea, 0xff, 0x2f, 0xa8, 0x9c, 0x74, 0xb1, 0x2d,
  0x08, 0xf8, 0xff, 0xfb, 0xa5, 0x0a, 0x8e, 0x17, 0xed, 0xff, 0x07, 0x00,
  0xa4, 0x04, 0x80, 0xaf, 0x7d, 0x43, 0x2b, 0xfe, 0x0b, 0x46, 0xfa, 0xb7,
  0xff, 0xff, 0x94, 0x2b, 0x0f, 0xcb, 0x08, 0xbc, 0xc8, 0xff, 0x37, 0x9a,
  0x16, 0x41, 0xd8, 0xff, 0x3f, 0xc0, 0x56, 0x00, 0x00, 0xd6, 0xae, 0xf0,
  0xef, 0x7d, 0x7f, 0xf3, 0xee, 0xac, 0x4e, 0x6b, 0x96, 0xfe, 0xff, 0x05,
  0x16, 0xb3, 0x0a, 0xfc, 0xff, 0xf0, 0x87, 0x55, 0x2c, 0xd3, 0x3f, 0x00,
  0x80, 0xeb, 0xf2, 0x7f, 0x3f, 0xc0, 0xab, 0x4a, 0xa0, 0xda, 0x6b, 0xcb,
  0x91, 0xff, 0x8f, 0xfb, 0x89, 0xa5, 0x5b, 0xfe, 0xff, 0x29, 0x0e, 0xf3,
  0x1b, 0x27, 0x56, 0xff, 0x1f, 0x00, 0x3a, 0x15, 0x00, 0xfe, 0xf5, 0x2e,
  0x42, 0x9d, 0xa0, 0xb0, 0xb3, 0xfd, 0xbf, 0x17, 0x05, 0xe1, 0xb8, 0x1b,
  0x87, 0xd0, 0xff, 0x27, 0xa8, 0xb3, 0x8a, 0xd7, 0xff, 0x3f, 0x00, 0x72,
  0x00, 0x00, 0xb6, 0x39, 0xfc, 0x77, 0xa2, 0x1d, 0x54, 0x81, 0xe3, 0x7e,
  0x56, 0xf4, 0xff, 0xff, 0x11, 0xf6, 0xd1, 0x2c, 0xdb, 0xd0, 0xff, 0x77,
  0x2b, 0x3f, 0x49, 0xee, 0xe0, 0x7f, 0x00, 0x80, 0xbe, 0x2c, 0x91, 0x7d,
  0x80, 0xb7, 0xa8, 0x51, 0x10, 0xda, 0x9a, 0xc7, 0x3c, 0xf8, 0xff, 0xb2,
  0x44, 0xfd, 0x31, 0x8c, 0x17, 0xfd, 0x3f, 0xa3, 0x6b, 0xce, 0x4c, 0x86,
  0xcd, 0xff, 0x0f, 0x00, 0x16, 0x0a, 0x00, 0x9d, 0x06, 0xff, 0xff, 0xfd,
  0xd8, 0x52, 0x5b, 0x7b, 0xff, 0xbf, 0xd5, 0xf3, 0x98, 0xff, 0xf2, 0xff,
  0x1f, 0x80, 0xde, 0x02, 0xe0, 0xa2, 0x02, 0x02, 0x96, 0xee, 0xcf, 0x95,
  0x06, 0x80, 0x06, 0x0e, 0xf3, 0x03, 0x00, 0x14, 0x00, 0xf8, 0xff, 0x9f,
  0x1f, 0xf8, 0xff, 0xff, 0xff, 0xff, 0xff, 0xff, 0xff, 0xff, 0xff, 0xff,
  0x00, 0x00, 0x00, 0x00, 0x86, 0xf3, 0xff, 0xff, 0x04, 0x00, 0x00, 0x00,
  0x64, 0x0c, 0x00, 0x00, 0x43, 0x4f, 0x50, 0x31, 0x01, 0x00, 0x10, 0x00,
  0x08, 0x30, 0x00, 0x00, 0x00, 0x00, 0x06, 0x10, 0x05, 0x00, 0x00, 0x00,
  0x05, 0x00, 0x00, 0x00, 0x05, 0x00, 0x00, 0x00, 0x02, 0x00, 0x11, 0x03,
  0x30, 0x01, 0x00, 0x00, 0x30, 0x40, 0x00, 0x00, 0xb0, 0x05, 0x00, 0x00,
  0x31, 0x01, 0x01, 0x00, 0x31, 0x40, 0x00, 0x00, 0x90, 0x01, 0x00, 0x00,
  0x32, 0x40, 0x00, 0x00, 0xe0, 0x01, 0x00, 0x00, 0x10, 0x00, 0x00, 0x00,
  0x0f, 0x01, 0x01, 0x00, 0x00, 0x40, 0x00, 0x00, 0x70, 0x03, 0x00, 0x00,
  0x01, 0x40, 0x00, 0x00, 0x00, 0x00, 0x00, 0x00, 0x02, 0x40, 0x00, 0x00,
  0x00, 0x00, 0x00, 0x00, 0x03, 0x40, 0x00, 0x00, 0x00, 0x00, 0x00, 0x00,
  0x0b, 0x01, 0x00, 0x00, 0x0c, 0x01, 0x00, 0x00, 0x0a, 0x01, 0x31, 0x00,
  0x04, 0x01, 0x0c, 0x00, 0x06, 0x40, 0x00, 0x00, 0x01, 0x00, 0x00, 0x00,
  0x05, 0x40, 0x00, 0x00, 0x8a, 0x02, 0x00, 0x00, 0x04, 0x40, 0x00, 0x00,
  0x0d, 0x00, 0x00, 0x00, 0x09, 0x01, 0x13, 0x00, 0x05, 0x01, 0x01, 0x00,
  0x07, 0x01, 0x00, 0x00, 0x00, 0x01, 0x00, 0x00, 0x01, 0x01, 0x01, 0x00,
  0x03, 0x01, 0x00, 0x00, 0x02, 0x01, 0x01, 0x00, 0x1f, 0x01, 0x01, 0x00,
  0x10, 0x40, 0x00, 0x00, 0x00, 0x00, 0x00, 0x00, 0x11, 0x40, 0x00, 0x00,
  0x00, 0x00, 0x00, 0x00, 0x12, 0x40, 0x00, 0x00, 0x00, 0x00, 0x00, 0x00,
  0x13, 0x40, 0x00, 0x00, 0x00, 0x00, 0x00, 0x00, 0x1b, 0x01, 0x00, 0x00,
  0x1c, 0x01, 0x00, 0x00, 0x1a, 0x01, 0x31, 0x00, 0x12, 0x01, 0x00, 0x00,
  0x11, 0x01, 0x31, 0x00, 0x13, 0x01, 0x07, 0x00, 0x16, 0x40, 0x00, 0x00,
  0x01, 0x00, 0x00, 0x00, 0x15, 0x40, 0x00, 0x00, 0x90, 0x01, 0x00, 0x00,
  0x14, 0x40, 0x00, 0x00, 0x08, 0x00, 0x00, 0x00, 0x18, 0x01, 0x80, 0xff,
  0x14, 0x01, 0x01, 0x00, 0x21, 0x01, 0x00, 0x00, 0x20, 0x01, 0x02, 0x00,
  0x22, 0x01, 0x04, 0x00, 0x28, 0x01, 0x01, 0x00, 0x20, 0x40, 0x00, 0x00,
  0xe0, 0x01, 0x00, 0x00, 0x21, 0x40, 0x00, 0x00, 0x90, 0x01, 0x00, 0x00,
  0x29, 0x01, 0x01, 0x00, 0x22, 0x40, 0x00, 0x00, 0x90, 0x01, 0x00, 0x00,
  0x23, 0x40, 0x00, 0x00, 0x50, 0x00, 0x00, 0x00, 0x25, 0x01, 0x00, 0x00,
  0x26, 0x01, 0x80, 0xff, 0x27, 0x01, 0x7f, 0x00, 0x16, 0x01, 0x01, 0x00,
  0x15, 0x01, 0x31, 0x00, 0x17, 0x01, 0x07, 0x00, 0x0d, 0x01, 0x0a, 0x00,
  0x2d, 0x01, 0x1e, 0x00, 0x24, 0x01, 0x00, 0x00, 0x2f, 0x01, 0x00, 0x00,
  0x11, 0x00, 0x00, 0x00, 0x02, 0x00, 0x00, 0x00, 0x00, 0x40, 0x00, 0x00,
  0x00, 0x00, 0x00, 0x00, 0x0b, 0x01, 0x31, 0x00, 0x0c, 0x01, 0x31, 0x00,
  0x0a, 0x01, 0x00, 0x00, 0x04, 0x01, 0x07, 0x00, 0x05, 0x40, 0x00, 0x00,
  0x08, 0x00, 0x00, 0x00, 0x04, 0x40, 0x00, 0x00, 0x08, 0x00, 0x00, 0x00,
  0x09, 0x01, 0x80, 0xff, 0x01, 0x01, 0x00, 0x00, 0x02, 0x01, 0x00, 0x00,
  0x10, 0x40, 0x00, 0x00, 0x90, 0x01, 0x00, 0x00, 0x1b, 0x01, 0x18, 0x00,
  0x1c, 0x01, 0x18, 0x00, 0x1a, 0x01, 0x00, 0x00, 0x12, 0x01, 0x18, 0x00,
  0x11, 0x01, 0x00, 0x00, 0x15, 0x40, 0x00, 0x00, 0x08, 0x00, 0x00, 0x00,
  0x21, 0x01, 0x01, 0x00, 0x20, 0x01, 0x00, 0x00, 0x22, 0x01, 0x02, 0x00,
  0x16, 0x01, 0x07, 0x00, 0x15, 0x01, 0x01, 0x00, 0x05, 0x00, 0x00, 0x00,
  0x30, 0x40, 0x00, 0x00, 0x90, 0x07, 0x00, 0x00, 0x31, 0x40, 0x00, 0x00,
  0x60, 0x02, 0x00, 0x00, 0x32, 0x40, 0x00, 0x00, 0x70, 0x02, 0x00, 0x00,
  0x12, 0x00, 0x01, 0x00, 0x10, 0x00, 0x00, 0x00, 0x00, 0x40, 0x00, 0x00,
  0x90, 0x01, 0x00, 0x00, 0x0b, 0x01, 0x00, 0x00, 0x0c, 0x01, 0x00, 0x00,
  0x0a, 0x01, 0x18, 0x00, 0x05, 0x40, 0x00, 0x00, 0xc8, 0x00, 0x00, 0x00,
  0x01, 0x01, 0x01, 0x00, 0x02, 0x01, 0x01, 0x00, 0x10, 0x40, 0x00, 0x00,
  0x00, 0x00, 0x00, 0x00, 0x1b, 0x01, 0x00, 0x00, 0x1c, 0x01, 0x00, 0x00,
  0x1a, 0x01, 0x18, 0x00, 0x12, 0x01, 0x00, 0x00, 0x11, 0x01, 0x18, 0x00,
  0x13, 0x01, 0x0f, 0x00, 0x15, 0x40, 0x00, 0x00, 0x90, 0x01, 0x00, 0x00,
  0x14, 0x40, 0x00, 0x00, 0x10, 0x00, 0x00, 0x00, 0x21, 0x01, 0x00, 0x00,
  0x20, 0x01, 0x02, 0x00, 0x22, 0x01, 0x04, 0x00, 0x20, 0x40, 0x00, 0x00,
  0x00, 0x03, 0x00, 0x00, 0x21, 0x40, 0x00, 0x00, 0xd0, 0x01, 0x00, 0x00,
  0x22, 0x40, 0x00, 0x00, 0x60, 0x02, 0x00, 0x00, 0x23, 0x40, 0x00, 0x00,
  0xa0, 0x00, 0x00, 0x00, 0x16, 0x01, 0x01, 0x00, 0x15, 0x01, 0x19, 0x00,
  0x17, 0x01, 0x0f, 0x00, 0x11, 0x00, 0x00, 0x00, 0x02, 0x00, 0x00, 0x00,
  0x00, 0x40, 0x00, 0x00, 0x00, 0x00, 0x00, 0x00, 0x0b, 0x01, 0x18, 0x00,
  0x0c, 0x01, 0x18, 0x00, 0x0a, 0x01, 0x00, 0x00, 0x04, 0x01, 0x0f, 0x00,
  0x05, 0x40, 0x00, 0x00, 0x10, 0x00, 0x00, 0x00, 0x04, 0x40, 0x00, 0x00,
  0x10, 0x00, 0x00, 0x00, 0x01, 0x01, 0x00, 0x00, 0x03, 0x01, 0x01, 0x00,
  0x02, 0x01, 0x00, 0x00, 0x10, 0x40, 0x00, 0x00, 0x90, 0x01, 0x00, 0x00,
  0x1b, 0x01, 0x0c, 0x00, 0x1c, 0x01, 0x0c, 0x00, 0x1a, 0x01, 0x00, 0x00,
  0x12, 0x01, 0x0c, 0x00, 0x11, 0x01, 0x00, 0x00, 0x15, 0x40, 0x00, 0x00,
  0x10, 0x00, 0x00, 0x00, 0x21, 0x01, 0x01, 0x00, 0x20, 0x01, 0x00, 0x00,
  0x22, 0x01, 0x02, 0x00, 0x16, 0x01, 0x03, 0x00, 0x15, 0x01, 0x01, 0x00,
  0x05, 0x00, 0x00, 0x00, 0x00, 0x40, 0x00, 0x00, 0x90, 0x01, 0x00, 0x00,
  0x0b, 0x01, 0x00, 0x00, 0x0c, 0x01, 0x00, 0x00, 0x04, 0x01, 0xcf, 0x00,
  0x05, 0x40, 0x00, 0x00, 0xd0, 0x00, 0x00, 0x00, 0x04, 0x40, 0x00, 0x00,
  0xd0, 0x00, 0x00, 0x00, 0x03, 0x01, 0x00, 0x00, 0x10, 0x40, 0x00, 0x00,
  0x40, 0x00, 0x00, 0x00, 0x1b, 0x01, 0x00, 0x00, 0x1c, 0x01, 0x00, 0x00,
  0x12, 0x01, 0x00, 0x00, 0x13, 0x01, 0x02, 0x00, 0x15, 0x40, 0x00, 0x00,
  0x03, 0x00, 0x00, 0x00, 0x14, 0x40, 0x00, 0x00, 0x03, 0x00, 0x00, 0x00,
  0x18, 0x01, 0xfe, 0xff, 0x21, 0x01, 0x00, 0x00, 0x22, 0x01, 0x00, 0x00,
  0x28, 0x01, 0x00, 0x00, 0x20, 0x40, 0x00, 0x00, 0x20, 0x0a, 0x00, 0x00,
  0x21, 0x40, 0x00, 0x00, 0x10, 0x03, 0x00, 0x00, 0x29, 0x01, 0x00, 0x00,
  0x22, 0x40, 0x00, 0x00, 0x00, 0x0a, 0x00, 0x00, 0x23, 0x40, 0x00, 0x00,
  0x20, 0x00, 0x00, 0x00, 0x16, 0x01, 0x01, 0x00, 0x17, 0x01, 0x07, 0x00,
  0x2f, 0x01, 0x03, 0x00, 0x02, 0x00, 0x00, 0x00, 0x00, 0x40, 0x00, 0x00,
  0x40, 0x00, 0x00, 0x00, 0x0a, 0x01, 0x02, 0x00, 0x04, 0x01, 0x00, 0x00,
  0x05, 0x40, 0x00, 0x00, 0x03, 0x00, 0x00, 0x00, 0x04, 0x40, 0x00, 0x00,
  0x01, 0x00, 0x00, 0x00, 0x09, 0x01, 0xfe, 0xff, 0x10, 0x40, 0x00, 0x00,
  0x50, 0x00, 0x00, 0x00, 0x13, 0x01, 0x00, 0x00, 0x16, 0x40, 0x00, 0x00,
  0x10, 0x00, 0x00, 0x00, 0x15, 0x40, 0x00, 0x00, 0x10, 0x00, 0x00, 0x00,
  0x14, 0x40, 0x00, 0x00, 0x10, 0x00, 0x00, 0x00, 0x14, 0x01, 0x41, 0x00,
  0x20, 0x01, 0x02, 0x00, 0x2f, 0x01, 0x00, 0x00, 0x05, 0x00, 0x00, 0x00,
  0x30, 0x40, 0x00, 0x00, 0x10, 0x01, 0x00, 0x00, 0x31, 0x01, 0x03, 0x01,
  0x31, 0x40, 0x00, 0x00, 0x00, 0xb8, 0x00, 0x00, 0x32, 0x40, 0x00, 0x00,
  0x00, 0x04, 0x00, 0x00, 0x10, 0x00, 0x00, 0x00, 0x25, 0x40, 0x00, 0x00,
  0x01, 0x00, 0x00, 0x00, 0x26, 0x40, 0x00, 0x00, 0x01, 0x00, 0x00, 0x00,
  0x24, 0x40, 0x00, 0x00, 0x01, 0x00, 0x00, 0x00, 0x0a, 0x01, 0x00, 0x00,
  0x04, 0x01, 0x02, 0x00, 0x04, 0x40, 0x00, 0x00, 0x03, 0x00, 0x00, 0x00,
  0x10, 0x40, 0x00, 0x00, 0x00, 0x00, 0x00, 0x00, 0x13, 0x01, 0x02, 0x00,
  0x16, 0x40, 0x00, 0x00, 0x40, 0x00, 0x00, 0x00, 0x15, 0x40, 0x00, 0x00,
  0x40, 0x00, 0x00, 0x00, 0x14, 0x40, 0x00, 0x00, 0x40, 0x00, 0x00, 0x00,
  0x18, 0x01, 0x7f, 0x00, 0x14, 0x01, 0x45, 0x01, 0x25, 0x01, 0x10, 0x30,
  0x0d, 0x01, 0x2e, 0x00, 0x2d, 0x01, 0x2e, 0x00, 0x8d, 0x01, 0x0a, 0x00,
  0x8f, 0x01, 0x01, 0x00, 0x80, 0x40, 0x00, 0x00, 0x50, 0x00, 0x00, 0x00,
  0x81, 0x40, 0x00, 0x00, 0x00, 0x00, 0x00, 0x00, 0x82, 0x40, 0x00, 0x00,
  0x00, 0x00, 0x00, 0x00, 0x83, 0x40, 0x00, 0x00, 0x00, 0x00, 0x00, 0x00,
  0x8b, 0x01, 0x00, 0x00, 0x8c, 0x01, 0x00, 0x00, 0x8a, 0x01, 0x00, 0x00,
  0x86, 0x40, 0x00, 0x00, 0x10, 0x00, 0x00, 0x00, 0x85, 0x40, 0x00, 0x00,
  0x10, 0x00, 0x00, 0x00, 0x84, 0x40, 0x00, 0x00, 0x10, 0x00, 0x00, 0x00,
  0x89, 0x01, 0xfe, 0xff, 0x85, 0x01, 0x41, 0x00, 0x80, 0x01, 0x04, 0x00,
  0x11, 0x00, 0x00, 0x00, 0x06, 0x00, 0x02, 0x00, 0x00, 0x40, 0x00, 0x00,
  0x00, 0x00, 0x00, 0x00, 0x06, 0x40, 0x00, 0x00, 0x40, 0x00, 0x00, 0x00,
  0x05, 0x40, 0x00, 0x00, 0x40, 0x00, 0x00, 0x00, 0x04, 0x40, 0x00, 0x00,
  0x40, 0x00, 0x00, 0x00, 0x09, 0x01, 0x00, 0x00, 0x05, 0x01, 0x49, 0x00,
  0x10, 0x40, 0x00, 0x00, 0x40, 0x00, 0x00, 0x00, 0x16, 0x40, 0x00, 0x00,
  0x04, 0x00, 0x00, 0x00, 0x15, 0x40, 0x00, 0x00, 0x0c, 0x00, 0x00, 0x00,
  0x14, 0x40, 0x00, 0x00, 0x0c, 0x00, 0x00, 0x00, 0x18, 0x01, 0xfe, 0xff,
  0x14, 0x01, 0x05, 0x80, 0x25, 0x01, 0x00, 0x00, 0x26, 0x01, 0x7e, 0xff,
  0x27, 0x01, 0x7d, 0x00, 0x8d, 0x01, 0x12, 0x00, 0x8f, 0x01, 0x00, 0x00,
  0x80, 0x40, 0x00, 0x00, 0x10, 0x05, 0x00, 0x00, 0x86, 0x40, 0x00, 0x00,
  0x04, 0x00, 0x00, 0x00, 0x85, 0x40, 0x00, 0x00, 0x04, 0x00, 0x00, 0x00,
  0x84, 0x40, 0x00, 0x00, 0x04, 0x00, 0x00, 0x00, 0x89, 0x01, 0x00, 0x00,
  0x85, 0x01, 0x09, 0x00, 0x06, 0x00, 0x08, 0x00, 0x00, 0x40, 0x00, 0x00,
  0x40, 0x00, 0x00, 0x00, 0x06, 0x40, 0x00, 0x00, 0x04, 0x00, 0x00, 0x00,
  0x05, 0x40, 0x00, 0x00, 0x0c, 0x00, 0x00, 0x00, 0x04, 0x40, 0x00, 0x00,
  0x0c, 0x00, 0x00, 0x00, 0x05, 0x01, 0x09, 0x00, 0x10, 0x40, 0x00, 0x00,
  0xc0, 0x00, 0x00, 0x00, 0x13, 0x01, 0x00, 0x00, 0x16, 0x40, 0x00, 0x00,
  0x40, 0x00, 0x00, 0x00, 0x15, 0x40, 0x00, 0x00, 0x40, 0x00, 0x00, 0x00,
  0x14, 0x40, 0x00, 0x00, 0x40, 0x00, 0x00, 0x00, 0x14, 0x01, 0x45, 0x01,
  0x20, 0x01, 0x00, 0x00, 0x0d, 0x01, 0x12, 0x00, 0x2d, 0x01, 0x1e, 0x00,
  0x05, 0x00, 0x02, 0x00, 0x00, 0x40, 0x00, 0x00, 0xc0, 0x00, 0x00, 0x00,
  0x04, 0x01, 0x00, 0x00, 0x06, 0x40, 0x00, 0x00, 0x40, 0x00, 0x00, 0x00,
  0x05, 0x40, 0x00, 0x00, 0x40, 0x00, 0x00, 0x00, 0x04, 0x40, 0x00, 0x00,
  0x40, 0x00, 0x00, 0x00, 0x05, 0x01, 0x49, 0x00, 0x10, 0x40, 0x00, 0x00,
  0x00, 0x01, 0x00, 0x00, 0x14, 0x01, 0x45, 0x00, 0x0d, 0x01, 0x2e, 0x00,
  0x2d, 0x01, 0x2e, 0x00, 0x06, 0x00, 0x07, 0x00, 0x0f, 0x01, 0x00, 0x00,
  0x00, 0x40, 0x00, 0x00, 0x20, 0x05, 0x00, 0x00, 0x06, 0x40, 0x00, 0x00,
  0x04, 0x00, 0x00, 0x00, 0x05, 0x40, 0x00, 0x00, 0x04, 0x00, 0x00, 0x00,
  0x04, 0x40, 0x00, 0x00, 0x04, 0x00, 0x00, 0x00, 0x05, 0x01, 0x09, 0x00,
  0x10, 0x40, 0x00, 0x00, 0x40, 0x00, 0x00, 0x00, 0x14, 0x01, 0x45, 0x01,
  0x8f, 0x01, 0x01, 0x00, 0x80, 0x40, 0x00, 0x00, 0x00, 0x01, 0x00, 0x00,
  0x86, 0x40, 0x00, 0x00, 0x40, 0x00, 0x00, 0x00, 0x85, 0x40, 0x00, 0x00,
  0x40, 0x00, 0x00, 0x00, 0x84, 0x40, 0x00, 0x00, 0x40, 0x00, 0x00, 0x00,
  0x85, 0x01, 0x49, 0x00, 0x80, 0x01, 0x00, 0x00, 0x06, 0x00, 0x02, 0x00,
  0x0f, 0x01, 0x01, 0x00, 0x00, 0x40, 0x00, 0x00, 0x00, 0x01, 0x00, 0x00,
  0x06, 0x40, 0x00, 0x00, 0x40, 0x00, 0x00, 0x00, 0x05, 0x40, 0x00, 0x00,
  0x40, 0x00, 0x00, 0x00, 0x04, 0x40, 0x00, 0x00, 0x40, 0x00, 0x00, 0x00,
  0x05, 0x01, 0x49, 0x00, 0x10, 0x40, 0x00, 0x00, 0x80, 0x00, 0x00, 0x00,
  0x8f, 0x01, 0x00, 0x00, 0x80, 0x40, 0x00, 0x00, 0x30, 0x05, 0x00, 0x00,
  0x86, 0x40, 0x00, 0x00, 0x04, 0x00, 0x00, 0x00, 0x85, 0x40, 0x00, 0x00,
  0x04, 0x00, 0x00, 0x00, 0x84, 0x40, 0x00, 0x00, 0x04, 0x00, 0x00, 0x00,
  0x85, 0x01, 0x09, 0x00, 0x2f, 0x01, 0x03, 0x00, 0x06, 0x00, 0x02, 0x00,
  0x00, 0x40, 0x00, 0x00, 0xc0, 0x00, 0x00, 0x00, 0x14, 0x01, 0x45, 0x00,
  0x8f, 0x01, 0x01, 0x00, 0x80, 0x40, 0x00, 0x00, 0x80, 0x00, 0x00, 0x00,
  0x86, 0x40, 0x00, 0x00, 0x40, 0x00, 0x00, 0x00, 0x85, 0x40, 0x00, 0x00,
  0x40, 0x00, 0x00, 0x00, 0x84, 0x40, 0x00, 0x00, 0x40, 0x00, 0x00, 0x00,
  0x85, 0x01, 0x49, 0x00, 0x2f, 0x01, 0x00, 0x00, 0x06, 0x00, 0x09, 0x00,
  0x00, 0x40, 0x00, 0x00, 0x80, 0x00, 0x00, 0x00, 0x14, 0x01, 0x45, 0x01,
  0x8f, 0x01, 0x00, 0x00, 0x80, 0x40, 0x00, 0x00, 0x40, 0x05, 0x00, 0x00,
  0x86, 0x40, 0x00, 0x00, 0x04, 0x00, 0x00, 0x00, 0x85, 0x40, 0x00, 0x00,
  0x04, 0x00, 0x00, 0x00, 0x84, 0x40, 0x00, 0x00, 0x04, 0x00, 0x00, 0x00,
  0x85, 0x01, 0x09, 0x00, 0x06, 0x00, 0x02, 0x00, 0x14, 0x01, 0x45, 0x00,
  0x80, 0x40, 0x00, 0x00, 0x30, 0x05, 0x00, 0x00, 0x06, 0x00, 0x09, 0x00,
  0x24, 0x40, 0x01, 0x00, 0x01, 0x00, 0x00, 0x00, 0x0f, 0x01, 0x00, 0x00,
  0x00, 0x40, 0x00, 0x00, 0x50, 0x05, 0x00, 0x00, 0x06, 0x40, 0x00, 0x00,
  0x04, 0x00, 0x00, 0x00, 0x05, 0x40, 0x00, 0x00, 0x04, 0x00, 0x00, 0x00,
  0x04, 0x40, 0x00, 0x00, 0x04, 0x00, 0x00, 0x00, 0x05, 0x01, 0x09, 0x00,
  0x18, 0x01, 0x00, 0x00, 0x14, 0x01, 0x45, 0x01, 0x26, 0x01, 0x80, 0xff,
  0x27, 0x01, 0x7f, 0x00, 0x8f, 0x01, 0x01, 0x00, 0x80, 0x40, 0x00, 0x00,
  0x80, 0x00, 0x00, 0x00, 0x86, 0x40, 0x00, 0x00, 0x40, 0x00, 0x00, 0x00,
  0x85, 0x40, 0x00, 0x00, 0x40, 0x00, 0x00, 0x00, 0x84, 0x40, 0x00, 0x00,
  0x40, 0x00, 0x00, 0x00, 0x85, 0x01, 0x49, 0x00, 0x06, 0x00, 0x01, 0x00,
  0x24, 0x40, 0x1f, 0x00, 0x00, 0x00, 0x00, 0x40, 0x0f, 0x01, 0x01, 0x00,
  0x00, 0x40, 0x00, 0x00, 0x80, 0x00, 0x00, 0x00, 0x06, 0x40, 0x00, 0x00,
  0x40, 0x00, 0x00, 0x00, 0x05, 0x40, 0x00, 0x00, 0x40, 0x00, 0x00, 0x00,
  0x04, 0x40, 0x00, 0x00, 0x40, 0x00, 0x00, 0x00, 0x05, 0x01, 0x49, 0x00,
  0x10, 0x40, 0x00, 0x00, 0x00, 0x01, 0x00, 0x00, 0x8f, 0x01, 0x00, 0x00,
  0x80, 0x40, 0x00, 0x00, 0x60, 0x05, 0x00, 0x00, 0x86, 0x40, 0x00, 0x00,
  0x04, 0x00, 0x00, 0x00, 0x85, 0x40, 0x00, 0x00, 0x04, 0x00, 0x00, 0x00,
  0x84, 0x40, 0x00, 0x00, 0x04, 0x00, 0x00, 0x00, 0x85, 0x01, 0x09, 0x00,
  0x06, 0x00, 0x00, 0x00, 0x24, 0x40, 0x00, 0x00, 0x01, 0x00, 0x00, 0x00,
  0x00, 0x40, 0x00, 0x00, 0x00, 0x01, 0x00, 0x00, 0x80, 0x40, 0x00, 0x00,
  0x70, 0x05, 0x00, 0x00, 0x06, 0x00, 0x01, 0x00, 0x24, 0x40, 0x1f, 0x00,
  0x00, 0x00, 0x00, 0x40, 0x10, 0x40, 0x00, 0x00, 0xc0, 0x00, 0x00, 0x00,
  0x8f, 0x01, 0x01, 0x00, 0x80, 0x40, 0x00, 0x00, 0x80, 0x00, 0x00, 0x00,
  0x86, 0x40, 0x00, 0x00, 0x40, 0x00, 0x00, 0x00, 0x85, 0x40, 0x00, 0x00,
  0x40, 0x00, 0x00, 0x00, 0x84, 0x40, 0x00, 0x00, 0x40, 0x00, 0x00, 0x00,
  0x85, 0x01, 0x49, 0x00, 0x06, 0x00, 0x00, 0x00, 0x24, 0x40, 0x00, 0x00,
  0x01, 0x00, 0x00, 0x00, 0x0f, 0x01, 0x00, 0x00, 0x00, 0x40, 0x00, 0x00,
  0x80, 0x05, 0x00, 0x00, 0x06, 0x40, 0x00, 0x00, 0x04, 0x00, 0x00, 0x00,
  0x05, 0x40, 0x00, 0x00, 0x04, 0x00, 0x00, 0x00, 0x04, 0x40, 0x00, 0x00,
  0x04, 0x00, 0x00, 0x00, 0x05, 0x01, 0x09, 0x00, 0x80, 0x40, 0x00, 0x00,
  0xc0, 0x00, 0x00, 0x00, 0x06, 0x00, 0x02, 0x00, 0x24, 0x40, 0x1f, 0x00,
  0x00, 0x00, 0x00, 0x40, 0x0f, 0x01, 0x01, 0x00, 0x00, 0x40, 0x00, 0x00,
  0x00, 0x01, 0x00, 0x00, 0x06, 0x40, 0x00, 0x00, 0x40, 0x00, 0x00, 0x00,
  0x05, 0x40, 0x00, 0x00, 0x40, 0x00, 0x00, 0x00, 0x04, 0x40, 0x00, 0x00,
  0x40, 0x00, 0x00, 0x00, 0x05, 0x01, 0x49, 0x00, 0x06, 0x00, 0x00, 0x00,
  0x24, 0x40, 0x00, 0x00, 0x01, 0x00, 0x00, 0x00, 0x00, 0x40, 0x00, 0x00,
  0xc0, 0x00, 0x00, 0x00, 0x18, 0x01, 0xfe, 0xff, 0x26, 0x01, 0x7e, 0xff,
  0x27, 0x01, 0x7d, 0x00, 0x8f, 0x01, 0x00, 0x00, 0x80, 0x40, 0x00, 0x00,
  0x90, 0x05, 0x00, 0x00, 0x86, 0x40, 0x00, 0x00, 0x04, 0x00, 0x00, 0x00,
  0x85, 0x40, 0x00, 0x00, 0x04, 0x00, 0x00, 0x00, 0x84, 0x40, 0x00, 0x00,
  0x04, 0x00, 0x00, 0x00, 0x85, 0x01, 0x09, 0x00, 0x06, 0x00, 0x00, 0x00,
  0x00, 0x40, 0x00, 0x00, 0x00, 0x01, 0x00, 0x00, 0x18, 0x01, 0x00, 0x00,
  0x26, 0x01, 0x80, 0xff, 0x27, 0x01, 0x7f, 0x00, 0x8f, 0x01, 0x01, 0x00,
  0x80, 0x40, 0x00, 0x00, 0xc0, 0x00, 0x00, 0x00, 0x86, 0x40, 0x00, 0x00,
  0x40, 0x00, 0x00, 0x00, 0x85, 0x40, 0x00, 0x00, 0x40, 0x00, 0x00, 0x00,
  0x84, 0x40, 0x00, 0x00, 0x40, 0x00, 0x00, 0x00, 0x85, 0x01, 0x49, 0x00,
  0x06, 0x00, 0x01, 0x00, 0x24, 0x40, 0x1f, 0x00, 0x00, 0x00, 0x00, 0x40,
  0x00, 0x40, 0x00, 0x00, 0xc0, 0x00, 0x00, 0x00, 0x10, 0x40, 0x00, 0x00,
  0x00, 0x01, 0x00, 0x00, 0x80, 0x40, 0x00, 0x00, 0x80, 0x00, 0x00, 0x00,
  0x06, 0x00, 0x00, 0x00, 0x24, 0x40, 0x00, 0x00, 0x01, 0x00, 0x00, 0x00,
  0x0f, 0x01, 0x00, 0x00, 0x00, 0x40, 0x00, 0x00, 0x80, 0x05, 0x00, 0x00,
  0x06, 0x40, 0x00, 0x00, 0x04, 0x00, 0x00, 0x00, 0x05, 0x40, 0x00, 0x00,
  0x04, 0x00, 0x00, 0x00, 0x04, 0x40, 0x00, 0x00, 0x04, 0x00, 0x00, 0x00,
  0x05, 0x01, 0x09, 0x00, 0x80, 0x40, 0x00, 0x00, 0x00, 0x01, 0x00, 0x00,
  0x06, 0x00, 0x02, 0x00, 0x24, 0x40, 0x1f, 0x00, 0x00, 0x00, 0x00, 0x40,
  0x0f, 0x01, 0x01, 0x00, 0x00, 0x40, 0x00, 0x00, 0xc0, 0x00, 0x00, 0x00,
  0x06, 0x40, 0x00, 0x00, 0x40, 0x00, 0x00, 0x00, 0x05, 0x40, 0x00, 0x00,
  0x40, 0x00, 0x00, 0x00, 0x04, 0x40, 0x00, 0x00, 0x40, 0x00, 0x00, 0x00,
  0x05, 0x01, 0x49, 0x00, 0x06, 0x00, 0x00, 0x00, 0x24, 0x40, 0x00, 0x00,
  0x01, 0x00, 0x00, 0x00, 0x00, 0x40, 0x00, 0x00, 0x00, 0x01, 0x00, 0x00,
  0x18, 0x01, 0xfe, 0xff, 0x26, 0x01, 0x7e, 0xff, 0x27, 0x01, 0x7d, 0x00,
  0x8f, 0x01, 0x00, 0x00, 0x80, 0x40, 0x00, 0x00, 0x90, 0x05, 0x00, 0x00,
  0x86, 0x40, 0x00, 0x00, 0x04, 0x00, 0x00, 0x00, 0x85, 0x40, 0x00, 0x00,
  0x04, 0x00, 0x00, 0x00, 0x84, 0x40, 0x00, 0x00, 0x04, 0x00, 0x00, 0x00,
  0x85, 0x01, 0x09, 0x00, 0x06, 0x00, 0x00, 0x00, 0x00, 0x40, 0x00, 0x00,
  0xc0, 0x00, 0x00, 0x00, 0x18, 0x01, 0x00, 0x00, 0x26, 0x01, 0x80, 0xff,
  0x27, 0x01, 0x7f, 0x00, 0x8f, 0x01, 0x01, 0x00, 0x80, 0x40, 0x00, 0x00,
  0x00, 0x01, 0x00, 0x00, 0x86, 0x40, 0x00, 0x00, 0x40, 0x00, 0x00, 0x00,
  0x85, 0x40, 0x00, 0x00, 0x40, 0x00, 0x00, 0x00, 0x84, 0x40, 0x00, 0x00,
  0x40, 0x00, 0x00, 0x00, 0x85, 0x01, 0x49, 0x00, 0x06, 0x00, 0x01, 0x00,
  0x24, 0x40, 0x1f, 0x00, 0x00, 0x00, 0x00, 0x40, 0x00, 0x40, 0x00, 0x00,
  0x00, 0x01, 0x00, 0x00, 0x10, 0x40, 0x00, 0x00, 0xc0, 0x00, 0x00, 0x00,
  0x80, 0x40, 0x00, 0x00, 0x80, 0x00, 0x00, 0x00, 0x06, 0x00, 0x00, 0x00,
  0x24, 0x40, 0x00, 0x00, 0x01, 0x00, 0x00, 0x00, 0x0f, 0x01, 0x00, 0x00,
  0x00, 0x40, 0x00, 0x00, 0x80, 0x05, 0x00, 0x00, 0x06, 0x40, 0x00, 0x00,
  0x04, 0x00, 0x00, 0x00, 0x05, 0x40, 0x00, 0x00, 0x04, 0x00, 0x00, 0x00,
  0x04, 0x40, 0x00, 0x00, 0x04, 0x00, 0x00, 0x00, 0x05, 0x01, 0x09, 0x00,
  0x80, 0x40, 0x00, 0x00, 0xc0, 0x00, 0x00, 0x00, 0x06, 0x00, 0x02, 0x00,
  0x24, 0x40, 0x1f, 0x00, 0x00, 0x00, 0x00, 0x40, 0x0f, 0x01, 0x01, 0x00,
  0x00, 0x40, 0x00, 0x00, 0x00, 0x01, 0x00, 0x00, 0x06, 0x40, 0x00, 0x00,
  0x40, 0x00, 0x00, 0x00, 0x05, 0x40, 0x00, 0x00, 0x40, 0x00, 0x00, 0x00,
  0x04, 0x40, 0x00, 0x00, 0x40, 0x00, 0x00, 0x00, 0x05, 0x01, 0x49, 0x00,
  0x06, 0x00, 0x00, 0x00, 0x24, 0x40, 0x00, 0x00, 0x01, 0x00, 0x00, 0x00,
  0x00, 0x40, 0x00, 0x00, 0xc0, 0x00, 0x00, 0x00, 0x18, 0x01, 0xfe, 0xff,
  0x26, 0x01, 0x7e, 0xff, 0x27, 0x01, 0x7d, 0x00, 0x8f, 0x01, 0x00, 0x00,
  0x80, 0x40, 0x00, 0x00, 0x90, 0x05, 0x00, 0x00, 0x86, 0x40, 0x00, 0x00,
  0x04, 0x00, 0x00, 0x00, 0x85, 0x40, 0x00, 0x00, 0x04, 0x00, 0x00, 0x00,
  0x84, 0x40, 0x00, 0x00, 0x04, 0x00, 0x00, 0x00, 0x85, 0x01, 0x09, 0x00,
  0x06, 0x00, 0x00, 0x00, 0x00, 0x40, 0x00, 0x00, 0x00, 0x01, 0x00, 0x00,
  0x18, 0x01, 0x00, 0x00, 0x26, 0x01, 0x80, 0xff, 0x27, 0x01, 0x7f, 0x00,
  0x8f, 0x01, 0x01, 0x00, 0x80, 0x40, 0x00, 0x00, 0xc0, 0x00, 0x00, 0x00,
  0x86, 0x40, 0x00, 0x00, 0x40, 0x00, 0x00, 0x00, 0x85, 0x40, 0x00, 0x00,
  0x40, 0x00, 0x00, 0x00, 0x84, 0x40, 0x00, 0x00, 0x40, 0x00, 0x00, 0x00,
  0x85, 0x01, 0x49, 0x00, 0x06, 0x00, 0x01, 0x00, 0x00, 0x40, 0x00, 0x00,
  0xc0, 0x00, 0x00, 0x00, 0x8f, 0x01, 0x00, 0x00, 0x80, 0x40, 0x00, 0x00,
  0xa0, 0x05, 0x00, 0x00, 0x86, 0x40, 0x00, 0x00, 0x04, 0x00, 0x00, 0x00,
  0x85, 0x40, 0x00, 0x00, 0x04, 0x00, 0x00, 0x00, 0x84, 0x40, 0x00, 0x00,
  0x04, 0x00, 0x00, 0x00, 0x85, 0x01, 0x09, 0x00, 0x06, 0x00, 0x00, 0x00,
  0x24, 0x40, 0x1f, 0x00, 0x00, 0x00, 0x00, 0x40, 0x00, 0x40, 0x00, 0x00,
  0x00, 0x00, 0x00, 0x00, 0x04, 0x01, 0x02, 0x00, 0x10, 0x40, 0x00, 0x00,
  0x80, 0x00, 0x00, 0x00, 0x13, 0x01, 0x02, 0x00, 0x8f, 0x01, 0x01, 0x00,
  0x80, 0x40, 0x00, 0x00, 0xc0, 0x00, 0x00, 0x00, 0x86, 0x40, 0x00, 0x00,
  0x40, 0x00, 0x00, 0x00, 0x85, 0x40, 0x00, 0x00, 0x40, 0x00, 0x00, 0x00,
  0x84, 0x40, 0x00, 0x00, 0x40, 0x00, 0x00, 0x00, 0x85, 0x01, 0x49, 0x00,
  0x80, 0x01, 0x04, 0x00, 0x06, 0x00, 0x00, 0x00, 0x24, 0x40, 0x00, 0x00,
  0x01, 0x00, 0x00, 0x00, 0x00, 0x40, 0x00, 0x00, 0x80, 0x00, 0x00, 0x00,
  0x10, 0x40, 0x00, 0x00, 0x00, 0x00, 0x00, 0x00, 0x16, 0x40, 0x00, 0x00,
  0x01, 0x00, 0x00, 0x00, 0x15, 0x40, 0x00, 0x00, 0x03, 0x00, 0x00, 0x00,
  0x14, 0x40, 0x00, 0x00, 0x03, 0x00, 0x00, 0x00, 0x18, 0x01, 0x80, 0xff,
  0x14, 0x01, 0x01, 0x80, 0x80, 0x40, 0x00, 0x00, 0x40, 0x00, 0x00, 0x00,
  0x06, 0x00, 0x08, 0x00, 0x00, 0x00, 0xff, 0xff, 0x04, 0x00, 0x06, 0x00,
  0x04, 0x00, 0x00, 0x00, 0x00, 0x00, 0x06, 0x00, 0x08, 0x00, 0x04, 0x00,
  0x06, 0x00, 0x00, 0x00, 0x04, 0x00, 0x00, 0x00, 0x00, 0x00, 0x00, 0x00,
  0x01, 0x00, 0x00, 0x00, 0x10, 0x00, 0x00, 0x00, 0x0c, 0x00, 0x14, 0x00,
  0x10, 0x00, 0x0c, 0x00, 0x08, 0x00, 0x04, 0x00, 0x0c, 0x00, 0x00, 0x00,
  0x10, 0x00, 0x00, 0x00, 0x74, 0x00, 0x00, 0x00, 0x78, 0x00, 0x00, 0x00,
  0x7c, 0x00, 0x00, 0x00, 0x01, 0x00, 0x00, 0x00, 0x1c, 0x00, 0x00, 0x00,
  0x00, 0x00, 0x16, 0x00, 0x18, 0x00, 0x00, 0x00, 0x14, 0x00, 0x10, 0x00,
  0x00, 0x00, 0x00, 0x00, 0x08, 0x00, 0x00, 0x00, 0x04, 0x00, 0x0c, 0x00,
  0x16, 0x00, 0x00, 0x00, 0x14, 0x00, 0x00, 0x00, 0x14, 0x00, 0x00, 0x00,
  0x18, 0x00, 0x00, 0x00, 0x18, 0x00, 0x00, 0x00, 0x1c, 0x00, 0x00, 0x00,
  0x00, 0x00, 0x00, 0x00, 0x03, 0x00, 0x00, 0x00, 0x01, 0x04, 0x01, 0x00,
  0x00, 0x00, 0x00, 0x00, 0x01, 0x00, 0x00, 0x00, 0x00, 0x00, 0x00, 0x00,
  0x05, 0x00, 0x00, 0x00, 0x01, 0x00, 0x00, 0x00, 0x02, 0x00, 0x00, 0x00,
  0x03, 0x00, 0x00, 0x00, 0x04, 0x00, 0x00, 0x00, 0x05, 0x00, 0x00, 0x00,
  0x01, 0x00, 0x00, 0x00, 0x00, 0x00, 0x00, 0x00, 0x01, 0x00, 0x00, 0x00,
  0x05, 0x00, 0x00, 0x00, 0x06, 0x00, 0x00, 0x00, 0x74, 0x01, 0x00, 0x00,
  0x24, 0x01, 0x00, 0x00, 0xe0, 0x00, 0x00, 0x00, 0xa8, 0x00, 0x00, 0x00,
  0x60, 0x00, 0x00, 0x00, 0x04, 0x00, 0x00, 0x00, 0xb2, 0xfe, 0xff, 0xff,
  0x10, 0x00, 0x00, 0x00, 0x2c, 0x00, 0x00, 0x00, 0x00, 0x00, 0x00, 0x09,
  0x3c, 0x00, 0x00, 0x00, 0xa4, 0xfe, 0xff, 0xff, 0x08, 0x00, 0x00, 0x00,
  0x10, 0x00, 0x00, 0x00, 0x01, 0x00, 0x00, 0x00, 0x13, 0x00, 0x00, 0x00,
  0x00, 0x00, 0x00, 0x00, 0x01, 0x00, 0x00, 0x00, 0x89, 0x0d, 0x42, 0x3d,
  0x13, 0x00, 0x00, 0x00, 0x73, 0x65, 0x72, 0x76, 0x69, 0x6e, 0x67, 0x5f,
  0x64, 0x65, 0x66, 0x61, 0x75, 0x6c, 0x74, 0x5f, 0x78, 0x3a, 0x30, 0x00,
  0x02, 0x00, 0x00, 0x00, 0x01, 0x00, 0x00, 0x00, 0x8a, 0x02, 0x00, 0x00,
  0xc8, 0xff, 0xff, 0xff, 0x0c, 0x00, 0x00, 0x00, 0x00, 0x00, 0x00, 0x03,
  0x24, 0x00, 0x00, 0x00, 0x19, 0x00, 0x00, 0x00, 0x6d, 0x61, 0x69, 0x6e,
  0x5f, 0x73, 0x70, 0x6c, 0x69, 0x74, 0x5f, 0x31, 0x5f, 0x73, 0x63, 0x72,
  0x61, 0x74, 0x63, 0x68, 0x5f, 0x66, 0x61, 0x73, 0x74, 0x00, 0x00, 0x00,
  0x01, 0x00, 0x00, 0x00, 0x00, 0x06, 0x00, 0x00, 0x0c, 0x00, 0x10, 0x00,
  0x0c, 0x00, 0x0b, 0x00, 0x00, 0x00, 0x04, 0x00, 0x0c, 0x00, 0x00, 0x00,
  0x0c, 0x00, 0x00, 0x00, 0x00, 0x00, 0x00, 0x03, 0x20, 0x00, 0x00, 0x00,
  0x14, 0x00, 0x00, 0x00, 0x6d, 0x61, 0x69, 0x6e, 0x5f, 0x73, 0x70, 0x6c,
  0x69, 0x74, 0x5f, 0x31, 0x5f, 0x73, 0x63, 0x72, 0x61, 0x74, 0x63, 0x68,
  0x00, 0x00, 0x00, 0x00, 0x01, 0x00, 0x00, 0x00, 0x00, 0x06, 0x00, 0x00,
  0xcc, 0xff, 0xff, 0xff, 0x10, 0x00, 0x00, 0x00, 0x03, 0x00, 0x00, 0x00,
  0x00, 0x00, 0x00, 0x03, 0x1c, 0x00, 0x00, 0x00, 0x12, 0x00, 0x00, 0x00,
  0x6d, 0x61, 0x69, 0x6e, 0x5f, 0x73, 0x70, 0x6c, 0x69, 0x74, 0x5f, 0x31,
  0x5f, 0x66, 0x6c, 0x61, 0x73, 0x68, 0x00, 0x00, 0x01, 0x00, 0x00, 0x00,
  0x30, 0x0d, 0x00, 0x00, 0x0c, 0x00, 0x14, 0x00, 0x10, 0x00, 0x0f, 0x00,
  0x08, 0x00, 0x04, 0x00, 0x0c, 0x00, 0x00, 0x00, 0x10, 0x00, 0x00, 0x00,
  0x02, 0x00, 0x00, 0x00, 0x00, 0x00, 0x00, 0x03, 0x24, 0x00, 0x00, 0x00,
  0x1b, 0x00, 0x00, 0x00, 0x6d, 0x61, 0x69, 0x6e, 0x5f, 0x73, 0x70, 0x6c,
  0x69, 0x74, 0x5f, 0x31, 0x5f, 0x63, 0x6f, 0x6d, 0x6d, 0x61, 0x6e, 0x64,
  0x5f, 0x73, 0x74, 0x72, 0x65, 0x61, 0x6d, 0x00, 0x01, 0x00, 0x00, 0x00,
  0x64, 0x0c, 0x00, 0x00, 0x00, 0x00, 0x0e, 0x00, 0x14, 0x00, 0x10, 0x00,
  0x0f, 0x00, 0x00, 0x00, 0x08, 0x00, 0x04, 0x00, 0x0e, 0x00, 0x00, 0x00,
  0x1c, 0x00, 0x00, 0x00, 0x3c, 0x00, 0x00, 0x00, 0x00, 0x00, 0x00, 0x09,
  0x58, 0x00, 0x00, 0x00, 0x0c, 0x00, 0x0c, 0x00, 0x00, 0x00, 0x00, 0x00,
  0x08, 0x00, 0x04, 0x00, 0x0c, 0x00, 0x00, 0x00, 0x08, 0x00, 0x00, 0x00,
  0x14, 0x00, 0x00, 0x00, 0x01, 0x00, 0x00, 0x00, 0x80, 0xff, 0xff, 0xff,
  0xff, 0xff, 0xff, 0xff, 0x00, 0x00, 0x00, 0x00, 0x01, 0x00, 0x00, 0x00,
  0x00, 0x00, 0x80, 0x3b, 0x1d, 0x00, 0x00, 0x00, 0x53, 0x74, 0x61, 0x74,
  0x65, 0x66, 0x75, 0x6c, 0x50, 0x61, 0x72, 0x74, 0x69, 0x74, 0x69, 0x6f,
  0x6e, 0x65, 0x64, 0x43, 0x61, 0x6c, 0x6c, 0x3a, 0x30, 0x5f, 0x63, 0x70,
  0x75, 0x00, 0x00, 0x00, 0x02, 0x00, 0x00, 0x00, 0x01, 0x00, 0x00, 0x00,
  0x03, 0x00, 0x00, 0x00, 0x0e, 0x00, 0x00, 0x00, 0x56, 0x65, 0x6c, 0x61,
  0x20, 0x4f, 0x70, 0x74, 0x69, 0x6d, 0x69, 0x73, 0x65, 0x64, 0x00, 0x00,
  0x01, 0x00, 0x00, 0x00, 0x10, 0x00, 0x00, 0x00, 0x0c, 0x00, 0x10, 0x00,
  0x0f, 0x00, 0x04, 0x00, 0x00, 0x00, 0x08, 0x00, 0x0c, 0x00, 0x00, 0x00,
  0x0c, 0x00, 0x00, 0x00, 0x20, 0x00, 0x00, 0x00, 0x00, 0x00, 0x00, 0x20,
  0x07, 0x00, 0x00, 0x00, 0x65, 0x74, 0x68, 0x6f, 0x73, 0x2d, 0x75, 0x00
};
unsigned int trained_tflite_len = 7584;

#endif // _EI_CLASSIFIER_TFLITE_TRAINED_H_


#elif EI_CONFIG_ETHOS_U55_128
/* Generated by Edge Impulse
 *
 * Permission is hereby granted, free of charge, to any person obtaining a copy
 * of this software and associated documentation files (the "Software"), to deal
 * in the Software without restriction, including without limitation the rights
 * to use, copy, modify, merge, publish, distribute, sublicense, and/or sell
 * copies of the Software, and to permit persons to whom the Software is
 * furnished to do so, subject to the following conditions:
 *
 * The above copyright notice and this permission notice shall be included in
 * all copies or substantial portions of the Software.
 *
 * THE SOFTWARE IS PROVIDED "AS IS", WITHOUT WARRANTY OF ANY KIND, EXPRESS OR
 * IMPLIED, INCLUDING BUT NOT LIMITED TO THE WARRANTIES OF MERCHANTABILITY,
 * FITNESS FOR A PARTICULAR PURPOSE AND NONINFRINGEMENT. IN NO EVENT SHALL THE
 * AUTHORS OR COPYRIGHT HOLDERS BE LIABLE FOR ANY CLAIM, DAMAGES OR OTHER
 * LIABILITY, WHETHER IN AN ACTION OF CONTRACT, TORT OR OTHERWISE, ARISING FROM,
 * OUT OF OR IN CONNECTION WITH THE SOFTWARE OR THE USE OR OTHER DEALINGS IN THE
 * SOFTWARE.
 */

#ifndef _EI_CLASSIFIER_TFLITE_TRAINED_H_
#define _EI_CLASSIFIER_TFLITE_TRAINED_H_

#define EI_CLASSIFIER_TFLITE_ARENA_SIZE     2320

#if defined __GNUC__
#define ALIGN(X) __attribute__((aligned(X)))
#elif defined _MSC_VER
#define ALIGN(X) __declspec(align(X))
#elif defined __TASKING__
#define ALIGN(X) __align(X)
#else
#define ALIGN(X)
#endif
ALIGN(16) const unsigned char trained_tflite[] = {
  0x1c, 0x00, 0x00, 0x00, 0x54, 0x46, 0x4c, 0x33, 0x00, 0x00, 0x12, 0x00,
  0x1c, 0x00, 0x18, 0x00, 0x14, 0x00, 0x10, 0x00, 0x0c, 0x00, 0x08, 0x00,
  0x00, 0x00, 0x04, 0x00, 0x12, 0x00, 0x00, 0x00, 0x18, 0x00, 0x00, 0x00,
  0x74, 0x00, 0x00, 0x00, 0x34, 0x1d, 0x00, 0x00, 0xa4, 0x1a, 0x00, 0x00,
  0x40, 0x1d, 0x00, 0x00, 0x03, 0x00, 0x00, 0x00, 0x02, 0x00, 0x00, 0x00,
  0x38, 0x00, 0x00, 0x00, 0x04, 0x00, 0x00, 0x00, 0xd8, 0xff, 0xff, 0xff,
  0x05, 0x00, 0x00, 0x00, 0x04, 0x00, 0x00, 0x00, 0x17, 0x00, 0x00, 0x00,
  0x4f, 0x66, 0x66, 0x6c, 0x69, 0x6e, 0x65, 0x4d, 0x65, 0x6d, 0x6f, 0x72,
  0x79, 0x41, 0x6c, 0x6c, 0x6f, 0x63, 0x61, 0x74, 0x69, 0x6f, 0x6e, 0x00,
  0x08, 0x00, 0x0c, 0x00, 0x08, 0x00, 0x04, 0x00, 0x08, 0x00, 0x00, 0x00,
  0x04, 0x00, 0x00, 0x00, 0x04, 0x00, 0x00, 0x00, 0x13, 0x00, 0x00, 0x00,
  0x6d, 0x69, 0x6e, 0x5f, 0x72, 0x75, 0x6e, 0x74, 0x69, 0x6d, 0x65, 0x5f,
  0x76, 0x65, 0x72, 0x73, 0x69, 0x6f, 0x6e, 0x00, 0x06, 0x00, 0x00, 0x00,
  0x28, 0x1a, 0x00, 0x00, 0x18, 0x1a, 0x00, 0x00, 0xa0, 0x0d, 0x00, 0x00,
  0x5c, 0x00, 0x00, 0x00, 0x38, 0x00, 0x00, 0x00, 0x04, 0x00, 0x00, 0x00,
  0xf6, 0xe5, 0xff, 0xff, 0x04, 0x00, 0x00, 0x00, 0x24, 0x00, 0x00, 0x00,
  0x00, 0x00, 0x00, 0x00, 0x01, 0x00, 0x00, 0x00, 0x06, 0x00, 0x00, 0x00,
  0x00, 0x00, 0x00, 0x00, 0xff, 0xff, 0xff, 0xff, 0xff, 0xff, 0xff, 0xff,
  0x00, 0x00, 0x00, 0x00, 0x00, 0x00, 0x00, 0x00, 0x70, 0x03, 0x00, 0x00,
  0x26, 0xe6, 0xff, 0xff, 0x04, 0x00, 0x00, 0x00, 0x10, 0x00, 0x00, 0x00,
  0x31, 0x2e, 0x31, 0x34, 0x2e, 0x30, 0x00, 0x00, 0x00, 0x00, 0x00, 0x00,
  0x00, 0x00, 0x00, 0x00, 0x00, 0x00, 0x00, 0x00, 0x46, 0xe6, 0xff, 0xff,
  0x04, 0x00, 0x00, 0x00, 0x30, 0x0d, 0x00, 0x00, 0x00, 0x00, 0x00, 0x00,
  0x00, 0x00, 0x00, 0x00, 0x00, 0x00, 0x00, 0x00, 0x00, 0x00, 0x00, 0x00,
  0x00, 0x00, 0x00, 0x00, 0x00, 0x00, 0x00, 0x00, 0x00, 0x00, 0x00, 0x00,
  0x00, 0x00, 0x00, 0x00, 0x00, 0x00, 0x00, 0x00, 0x00, 0x00, 0x00, 0x00,
  0x00, 0x00, 0x00, 0x00, 0x00, 0x00, 0x00, 0x00, 0x00, 0x00, 0x00, 0x00,
  0x00, 0x00, 0x00, 0x00, 0x00, 0x00, 0x00, 0x00, 0x00, 0x00, 0x00, 0x00,
  0x00, 0x00, 0x00, 0x00, 0x00, 0x00, 0x00, 0x00, 0x00, 0x00, 0x00, 0x00,
  0x00, 0x00, 0x00, 0x00, 0x00, 0x00, 0x00, 0x00, 0x00, 0x00, 0x00, 0x00,
  0x00, 0x00, 0x00, 0x00, 0x00, 0x00, 0x00, 0x00, 0x00, 0x00, 0x00, 0x00,
  0x00, 0x00, 0x00, 0x00, 0x00, 0x00, 0x00, 0x00, 0x00, 0x00, 0x00, 0x00,
  0x00, 0x00, 0x00, 0x00, 0x00, 0x00, 0x00, 0x00, 0x00, 0x00, 0x00, 0x00,
  0x00, 0x00, 0x00, 0x00, 0x00, 0x00, 0x00, 0x00, 0x00, 0x00, 0x00, 0x00,
  0x00, 0x00, 0x00, 0x00, 0x00, 0x00, 0x00, 0x00, 0x00, 0x00, 0x00, 0x00,
  0x00, 0x00, 0x00, 0x00, 0x00, 0x00, 0x00, 0x00, 0x00, 0x00, 0x00, 0x00,
  0x00, 0x00, 0x00, 0x00, 0x00, 0x00, 0x00, 0x00, 0x00, 0x00, 0x00, 0x00,
  0x00, 0x00, 0x00, 0x00, 0x00, 0x00, 0x00, 0x00, 0x00, 0x00, 0x00, 0x00,
  0x00, 0x00, 0x00, 0x00, 0x00, 0x00, 0x00, 0x00, 0x00, 0x00, 0x00, 0x00,
  0x00, 0x00, 0x00, 0x00, 0x00, 0x00, 0x00, 0x00, 0x00, 0x00, 0x00, 0x00,
  0x00, 0x00, 0x00, 0x00, 0x00, 0x00, 0x00, 0x00, 0x00, 0x00, 0x00, 0x00,
  0x00, 0x00, 0x00, 0x00, 0x00, 0x00, 0x00, 0x00, 0x00, 0x00, 0x00, 0x00,
  0x00, 0x00, 0x00, 0x00, 0x00, 0x00, 0x00, 0x00, 0x00, 0x00, 0x00, 0x00,
  0x00, 0x00, 0x00, 0x00, 0x00, 0x00, 0x00, 0x00, 0x00, 0x00, 0x00, 0x00,
  0x00, 0x00, 0x00, 0x00, 0x00, 0x00, 0x00, 0x00, 0x00, 0x00, 0x00, 0x00,
  0x00, 0x00, 0x00, 0x00, 0x00, 0x00, 0x00, 0x00, 0x00, 0x00, 0x00, 0x00,
  0x00, 0x00, 0x00, 0x00, 0x00, 0x00, 0x00, 0x00, 0x00, 0x00, 0x00, 0x00,
  0x00, 0x00, 0x00, 0x00, 0x00, 0x00, 0x00, 0x00, 0x00, 0x00, 0x00, 0x00,
  0x00, 0x00, 0x00, 0x00, 0x00, 0x00, 0x00, 0x00, 0x00, 0x00, 0x00, 0x00,
  0x00, 0x00, 0x00, 0x00, 0x00, 0x00, 0x00, 0x00, 0x00, 0x00, 0x00, 0x00,
  0x00, 0x00, 0x00, 0x00, 0x00, 0x00, 0x00, 0x00, 0x00, 0x00, 0x00, 0x00,
  0x00, 0x00, 0x00, 0x00, 0x00, 0x00, 0x00, 0x00, 0x00, 0x00, 0x00, 0x00,
  0x00, 0x00, 0x00, 0x00, 0x00, 0x00, 0x00, 0x00, 0x00, 0x00, 0x00, 0x00,
  0x00, 0x00, 0x00, 0x00, 0x00, 0x00, 0x00, 0x00, 0x00, 0x00, 0x00, 0x00,
  0x00, 0x00, 0x00, 0x00, 0x00, 0x00, 0x00, 0x00, 0x00, 0x00, 0x00, 0x00,
  0x00, 0x00, 0x00, 0x00, 0x00, 0x00, 0x00, 0x00, 0x00, 0x00, 0x00, 0x00,
  0x00, 0x00, 0x00, 0x00, 0x00, 0x00, 0x00, 0x00, 0x00, 0x00, 0x00, 0x00,
  0x00, 0x00, 0x00, 0x00, 0x00, 0x00, 0x00, 0x00, 0x00, 0x00, 0x00, 0x00,
  0x00, 0x00, 0x00, 0x00, 0x00, 0x00, 0x00, 0x00, 0x00, 0x00, 0x00, 0x00,
  0x00, 0x00, 0x00, 0x00, 0x00, 0x00, 0x00, 0x00, 0x00, 0x00, 0x00, 0x00,
  0x00, 0x00, 0x00, 0x00, 0x00, 0x00, 0x00, 0x00, 0x00, 0x00, 0x00, 0x00,
  0x00, 0x00, 0x00, 0x00, 0x00, 0x00, 0x00, 0x00, 0x00, 0x00, 0x00, 0x00,
  0x00, 0x00, 0x00, 0x00, 0x00, 0x00, 0x00, 0x00, 0x00, 0x00, 0x00, 0x00,
  0x00, 0x00, 0x00, 0x00, 0x00, 0x00, 0x00, 0x00, 0x00, 0x00, 0x00, 0x00,
  0x00, 0x00, 0x00, 0x00, 0x00, 0x00, 0x00, 0x00, 0x00, 0x00, 0x00, 0x00,
  0x00, 0x00, 0x00, 0x00, 0x00, 0x00, 0x00, 0x00, 0x00, 0x00, 0x00, 0x00,
  0x00, 0x00, 0x00, 0x00, 0x00, 0x00, 0x00, 0x00, 0x00, 0x00, 0x00, 0x00,
  0x00, 0x00, 0x00, 0x00, 0x00, 0x00, 0x00, 0x00, 0x00, 0x00, 0x00, 0x00,
  0x00, 0x00, 0x00, 0x00, 0x00, 0x00, 0x00, 0x00, 0x00, 0x00, 0x00, 0x00,
  0x00, 0x00, 0x00, 0x00, 0x00, 0x00, 0x00, 0x00, 0x00, 0x00, 0x00, 0x00,
  0x00, 0x00, 0x00, 0x00, 0x00, 0x00, 0x00, 0x00, 0x00, 0x00, 0x00, 0x00,
  0x00, 0x00, 0x00, 0x00, 0x00, 0x00, 0x00, 0x00, 0x00, 0x00, 0x00, 0x00,
  0x00, 0x00, 0x00, 0x00, 0x00, 0x00, 0x00, 0x00, 0x00, 0x00, 0x00, 0x00,
  0x00, 0x00, 0x00, 0x00, 0x00, 0x00, 0x00, 0x00, 0x00, 0x00, 0x00, 0x00,
  0x00, 0x00, 0x00, 0x00, 0x00, 0x00, 0x00, 0x00, 0x00, 0x00, 0x00, 0x00,
  0x00, 0x00, 0x00, 0x00, 0x00, 0x00, 0x00, 0x00, 0x00, 0x00, 0x00, 0x00,
  0x00, 0x00, 0x00, 0x00, 0x00, 0x00, 0x00, 0x00, 0x00, 0x00, 0x00, 0x00,
  0x00, 0x00, 0x00, 0x00, 0x00, 0x00, 0x00, 0x00, 0x00, 0x00, 0x00, 0x00,
  0x00, 0x00, 0x00, 0x00, 0x00, 0x00, 0x00, 0x00, 0x00, 0x00, 0x00, 0x00,
  0x00, 0x00, 0x00, 0x00, 0x00, 0x00, 0x00, 0x00, 0x00, 0x00, 0x00, 0x00,
  0x00, 0x00, 0x00, 0x00, 0x00, 0x00, 0x00, 0x00, 0x00, 0x00, 0x00, 0x00,
  0x00, 0x00, 0x00, 0x00, 0x00, 0x00, 0x00, 0x00, 0x00, 0x00, 0x00, 0x00,
  0x00, 0x00, 0x00, 0x00, 0x00, 0x00, 0x00, 0x00, 0x00, 0x00, 0x00, 0x00,
  0x00, 0x00, 0x00, 0x00, 0x00, 0x00, 0x00, 0x00, 0x00, 0x00, 0x00, 0x00,
  0x00, 0x00, 0x00, 0x00, 0x00, 0x00, 0x00, 0x00, 0x00, 0x00, 0x00, 0x00,
  0x00, 0x00, 0x00, 0x00, 0x00, 0x00, 0x00, 0x00, 0x00, 0x00, 0x00, 0x00,
  0x00, 0x00, 0x00, 0x00, 0x00, 0x00, 0x00, 0x00, 0x00, 0x00, 0x00, 0x00,
  0x00, 0x00, 0x00, 0x00, 0x00, 0x00, 0x00, 0x00, 0x00, 0x00, 0x00, 0x00,
  0x00, 0x00, 0x00, 0x00, 0x00, 0x00, 0x00, 0x00, 0x00, 0x00, 0x00, 0x00,
  0x89, 0x00, 0x00, 0x00, 0x9c, 0x00, 0x00, 0x00, 0xb3, 0x00, 0x00, 0x00,
  0xcc, 0x00, 0x00, 0x00, 0xe9, 0x00, 0x00, 0x00, 0x0a, 0x01, 0x00, 0x00,
  0x30, 0x01, 0x00, 0x00, 0x5c, 0x01, 0x00, 0x00, 0x8e, 0x01, 0x00, 0x00,
  0xc7, 0x01, 0x00, 0x00, 0x08, 0x02, 0x00, 0x00, 0x52, 0x02, 0x00, 0x00,
  0xa7, 0x02, 0x00, 0x00, 0x08, 0x03, 0x00, 0x00, 0x77, 0x03, 0x00, 0x00,
  0xf5, 0x03, 0x00, 0x00, 0x86, 0x04, 0x00, 0x00, 0x2c, 0x05, 0x00, 0x00,
  0xe9, 0x05, 0x00, 0x00, 0xc2, 0x06, 0x00, 0x00, 0xb9, 0x07, 0x00, 0x00,
  0xd4, 0x08, 0x00, 0x00, 0x17, 0x0a, 0x00, 0x00, 0x88, 0x0b, 0x00, 0x00,
  0x2e, 0x0d, 0x00, 0x00, 0x10, 0x0f, 0x00, 0x00, 0x38, 0x11, 0x00, 0x00,
  0xae, 0x13, 0x00, 0x00, 0x7e, 0x16, 0x00, 0x00, 0xb5, 0x19, 0x00, 0x00,
  0x62, 0x1d, 0x00, 0x00, 0x96, 0x21, 0x00, 0x00, 0x63, 0x26, 0x00, 0x00,
  0xe0, 0x2b, 0x00, 0x00, 0x26, 0x32, 0x00, 0x00, 0x52, 0x39, 0x00, 0x00,
  0x84, 0x41, 0x00, 0x00, 0xe2, 0x4a, 0x00, 0x00, 0x97, 0x55, 0x00, 0x00,
  0xd4, 0x61, 0x00, 0x00, 0xd0, 0x6f, 0x00, 0x00, 0xcd, 0x7f, 0x00, 0x00,
  0x13, 0x92, 0x00, 0x00, 0xf6, 0xa6, 0x00, 0x00, 0xd5, 0xbe, 0x00, 0x00,
  0x1e, 0xda, 0x00, 0x00, 0x4d, 0xf9, 0x00, 0x00, 0xf2, 0x1c, 0x01, 0x00,
  0xb0, 0x45, 0x01, 0x00, 0x41, 0x74, 0x01, 0x00, 0x7b, 0xa9, 0x01, 0x00,
  0x50, 0xe6, 0x01, 0x00, 0xd8, 0x2b, 0x02, 0x00, 0x52, 0x7b, 0x02, 0x00,
  0x28, 0xd6, 0x02, 0x00, 0xfb, 0x3d, 0x03, 0x00, 0xa6, 0xb4, 0x03, 0x00,
  0x49, 0x3c, 0x04, 0x00, 0x51, 0xd7, 0x04, 0x00, 0x83, 0x88, 0x05, 0x00,
  0x0b, 0x53, 0x06, 0x00, 0x87, 0x3a, 0x07, 0x00, 0x1d, 0x43, 0x08, 0x00,
  0x88, 0x71, 0x09, 0x00, 0x2f, 0xcb, 0x0a, 0x00, 0x42, 0x56, 0x0c, 0x00,
  0xd2, 0x19, 0x0e, 0x00, 0xf2, 0x1d, 0x10, 0x00, 0xde, 0x6b, 0x12, 0x00,
  0x23, 0x0e, 0x15, 0x00, 0xcf, 0x10, 0x18, 0x00, 0xac, 0x81, 0x1b, 0x00,
  0x7a, 0x70, 0x1f, 0x00, 0x3c, 0xef, 0x23, 0x00, 0x87, 0x12, 0x29, 0x00,
  0xe0, 0xf1, 0x2e, 0x00, 0x2c, 0xa8, 0x35, 0x00, 0x25, 0x54, 0x3d, 0x00,
  0xed, 0x18, 0x46, 0x00, 0xa9, 0x1e, 0x50, 0x00, 0x3f, 0x93, 0x5b, 0x00,
  0x21, 0xab, 0x68, 0x00, 0x3e, 0xa2, 0x77, 0x00, 0x23, 0xbd, 0x88, 0x00,
  0x1c, 0x4a, 0x9c, 0x00, 0xb1, 0xa2, 0xb2, 0x00, 0x30, 0x2d, 0xcc, 0x00,
  0x8d, 0x5e, 0xe9, 0x00, 0x70, 0xbc, 0x0a, 0x01, 0xa3, 0xdf, 0x30, 0x01,
  0xc2, 0x76, 0x5c, 0x01, 0x65, 0x49, 0x8e, 0x01, 0xa8, 0x3b, 0xc7, 0x01,
  0x51, 0x52, 0x08, 0x02, 0x56, 0xb7, 0x52, 0x02, 0x70, 0xbf, 0xa7, 0x02,
  0xeb, 0xef, 0x08, 0x03, 0xaf, 0x05, 0x78, 0x03, 0x80, 0xfd, 0xf6, 0x03,
  0x9d, 0x1c, 0x88, 0x04, 0x91, 0xfb, 0x2d, 0x05, 0xc7, 0x91, 0xeb, 0x05,
  0x59, 0x43, 0xc4, 0x06, 0x6c, 0xf0, 0xbb, 0x07, 0x12, 0x07, 0xd7, 0x08,
  0x6b, 0x97, 0x1a, 0x0a, 0x0c, 0x6b, 0x8c, 0x0b, 0x24, 0x1f, 0x33, 0x0d,
  0x63, 0x43, 0x16, 0x0f, 0x7f, 0x7b, 0x3e, 0x11, 0xa5, 0xa8, 0xb5, 0x13,
  0x66, 0x14, 0x87, 0x16, 0x6a, 0xa5, 0xbf, 0x19, 0xff, 0x1b, 0x6e, 0x1d,
  0xc2, 0x52, 0xa3, 0x21, 0x6b, 0x8e, 0x72, 0x26, 0x15, 0xd4, 0xf1, 0x2b,
  0x7e, 0x4f, 0x3a, 0x32, 0x2b, 0xc5, 0x68, 0x39, 0x27, 0x17, 0x9e, 0x41,
  0x4e, 0xda, 0xff, 0x4a, 0x5e, 0x04, 0xb9, 0x55, 0x36, 0xad, 0xfa, 0x61,
  0xa1, 0xf5, 0xfc, 0x6f, 0xff, 0xff, 0xff, 0x7f, 0x0c, 0x00, 0x00, 0x00,
  0x00, 0x00, 0x00, 0x00, 0x00, 0x00, 0x00, 0x00, 0x00, 0x00, 0x00, 0x00,
  0x23, 0x00, 0x00, 0x00, 0x00, 0x00, 0x00, 0x00, 0x00, 0x00, 0x00, 0x00,
  0x00, 0x00, 0x00, 0x00, 0x01, 0x00, 0x00, 0x00, 0x00, 0x00, 0x00, 0x00,
  0x00, 0x00, 0x00, 0x00, 0x00, 0x00, 0x00, 0x00, 0x00, 0x00, 0x00, 0x40,
  0x00, 0x00, 0x00, 0x00, 0x00, 0x00, 0x00, 0x00, 0x00, 0x00, 0x00, 0x00,
  0xff, 0xff, 0xff, 0x7f, 0x00, 0x00, 0x00, 0x00, 0x00, 0x00, 0x00, 0x00,
  0x00, 0x00, 0x00, 0x00, 0xc4, 0xc3, 0xc3, 0xc3, 0x00, 0x00, 0x00, 0x00,
  0x00, 0x00, 0x00, 0x00, 0x00, 0x00, 0x00, 0x00, 0x5a, 0x5a, 0x5a, 0x5a,
  0x00, 0x00, 0x00, 0x00, 0x00, 0x00, 0x00, 0x00, 0x00, 0x00, 0x00, 0x00,
  0x00, 0x00, 0x00, 0x20, 0x00, 0x00, 0x00, 0x00, 0x00, 0x00, 0x00, 0x00,
  0x00, 0x00, 0x00, 0x00, 0x04, 0x00, 0x00, 0x00, 0x00, 0x00, 0x00, 0x00,
  0x00, 0x00, 0x00, 0x00, 0x00, 0x00, 0x00, 0x00, 0x02, 0x00, 0x00, 0x00,
  0x00, 0x00, 0x00, 0x00, 0x00, 0x00, 0x00, 0x00, 0x00, 0x00, 0x00, 0x00,
  0xeb, 0x01, 0x00, 0x00, 0x00, 0xb1, 0x52, 0x0d, 0x62, 0x25, 0x1c, 0xfe,
  0xff, 0xff, 0xff, 0xa4, 0xce, 0x3b, 0x47, 0x25, 0x42, 0xee, 0xff, 0xff,
  0xff, 0xc2, 0x7d, 0x48, 0x45, 0x26, 0x8d, 0xec, 0xff, 0xff, 0xff, 0xed,
  0x6f, 0xc2, 0x4b, 0x26, 0x85, 0xf8, 0xff, 0xff, 0xff, 0x21, 0x3d, 0x11,
  0x62, 0x26, 0x22, 0xfe, 0xff, 0xff, 0xff, 0xcf, 0x41, 0x88, 0x5f, 0x26,
  0x2f, 0xf5, 0xff, 0xff, 0xff, 0xbc, 0x65, 0xfc, 0x60, 0x26, 0x33, 0xfc,
  0xff, 0xff, 0xff, 0x8d, 0xab, 0x34, 0x56, 0x25, 0x90, 0x09, 0x54, 0xf1,
  0xcd, 0xf1, 0xf0, 0xef, 0xb2, 0x60, 0xf0, 0xa3, 0x70, 0xb3, 0x81, 0x01,
  0x81, 0x70, 0x20, 0x70, 0x34, 0x04, 0x94, 0x83, 0x83, 0x62, 0xd2, 0x41,
  0x31, 0xd1, 0xc0, 0xb0, 0x07, 0xf6, 0xd5, 0xf5, 0x84, 0xc1, 0x00, 0xd0,
  0xb2, 0xb5, 0x0a, 0xaa, 0x78, 0xd4, 0x00, 0x88, 0x02, 0x01, 0x80, 0x86,
  0xc8, 0x94, 0x1c, 0x58, 0xec, 0x1d, 0x00, 0xbc, 0x57, 0x0f, 0x08, 0x0e,
  0xe7, 0x50, 0xc2, 0xfc, 0xde, 0x8e, 0x9d, 0xb5, 0x77, 0x01, 0xa0, 0x2e,
  0x83, 0xcf, 0xf6, 0x75, 0x9d, 0xfa, 0xe1, 0xa4, 0x13, 0xcc, 0xae, 0x03,
  0xc0, 0xbf, 0xa3, 0x1b, 0x9c, 0x55, 0x0e, 0x7e, 0xd6, 0x56, 0xea, 0x32,
  0x18, 0xce, 0x03, 0xbf, 0x81, 0x49, 0x48, 0x3f, 0x68, 0x19, 0x5f, 0x75,
  0x92, 0x1b, 0x00, 0x8c, 0xbd, 0x80, 0xf2, 0xe3, 0x63, 0xe9, 0xfe, 0x9b,
  0x2f, 0x00, 0xdc, 0x22, 0x6e, 0x5c, 0xe9, 0xfb, 0xd9, 0x38, 0x80, 0x54,
  0x6d, 0x06, 0x07, 0x80, 0x1f, 0x19, 0xdf, 0x1f, 0x62, 0x63, 0x65, 0x53,
  0xad, 0xe5, 0xd9, 0x7f, 0x03, 0x80, 0xdb, 0xa3, 0x38, 0x6f, 0xde, 0x88,
  0x46, 0x5e, 0x7b, 0x11, 0x0a, 0x34, 0x9f, 0x03, 0x00, 0x67, 0x31, 0x84,
  0x57, 0xf3, 0xa4, 0x01, 0x00, 0x1a, 0x9f, 0x10, 0x56, 0xed, 0x23, 0x77,
  0x6f, 0xbf, 0x70, 0x54, 0x0e, 0x12, 0xe1, 0x78, 0x03, 0xc0, 0xbf, 0x54,
  0x67, 0x57, 0xb4, 0xbd, 0xff, 0x05, 0xb5, 0xcc, 0x3b, 0xff, 0x5b, 0x94,
  0xc9, 0x0b, 0x00, 0xb7, 0xb9, 0xf9, 0x38, 0x32, 0xff, 0xca, 0x23, 0xec,
  0xe7, 0x58, 0x08, 0x00, 0xf5, 0xec, 0x3d, 0xa9, 0x58, 0x01, 0x05, 0x00,
  0x57, 0xf0, 0x81, 0x40, 0x36, 0x74, 0x8c, 0xa8, 0xff, 0x5f, 0xff, 0x6d,
  0x12, 0x79, 0x08, 0x19, 0xff, 0xbf, 0x4c, 0x00, 0x14, 0x0d, 0x1f, 0x3d,
  0xff, 0xff, 0xff, 0xff, 0xff, 0xe0, 0x40, 0x1a, 0x0e, 0x86, 0x55, 0x07,
  0x8f, 0xae, 0x5f, 0x7b, 0xc6, 0x57, 0x08, 0x82, 0x83, 0x4b, 0xf7, 0x4a,
  0x70, 0x25, 0x37, 0x20, 0xe4, 0xe0, 0x80, 0x03, 0x0a, 0xa8, 0xba, 0x9b,
  0xc1, 0x0a, 0x27, 0xe9, 0x16, 0xbb, 0xf0, 0x1d, 0xfc, 0x92, 0x67, 0x61,
  0x17, 0xae, 0x02, 0x0e, 0x2e, 0xb5, 0x31, 0xf9, 0x60, 0x06, 0xe3, 0xe0,
  0x7d, 0x6d, 0xe0, 0xd0, 0xc7, 0xdc, 0x4a, 0xc5, 0xf1, 0xa2, 0x36, 0xd4,
  0xc1, 0x43, 0x19, 0xc0, 0x3f, 0x47, 0xba, 0xc1, 0xa1, 0x9e, 0xda, 0xc5,
  0x85, 0x68, 0x1d, 0xf0, 0xc6, 0x3b, 0xf8, 0xf7, 0x52, 0xe4, 0xd3, 0x99,
  0xb8, 0x11, 0x1c, 0x72, 0xde, 0x20, 0x65, 0x9a, 0xee, 0xe0, 0x36, 0xd1,
  0x45, 0x07, 0xa9, 0x04, 0x00, 0x00, 0x07, 0x4a, 0x1f, 0x37, 0x34, 0x0b,
  0x00, 0x38, 0xde, 0x36, 0x10, 0xdc, 0x00, 0x00, 0x05, 0x00, 0xfe, 0x01,
  0xca, 0xfe, 0xff, 0xff, 0xff, 0xff, 0xff, 0xff, 0xff, 0xff, 0xff, 0xff,
  0xd0, 0xf9, 0xff, 0xff, 0xff, 0x8f, 0x41, 0x2a, 0x59, 0x25, 0xce, 0x04,
  0x00, 0x00, 0x00, 0x91, 0x85, 0x7d, 0x72, 0x25, 0xef, 0xfd, 0xff, 0xff,
  0xff, 0xff, 0x21, 0xa6, 0x66, 0x25, 0xe2, 0xf9, 0xff, 0xff, 0xff, 0x4a,
  0x0e, 0xd8, 0x4a, 0x25, 0xed, 0x07, 0x00, 0x00, 0x00, 0x77, 0x21, 0xcc,
  0x5f, 0x25, 0x50, 0x00, 0x00, 0x00, 0x00, 0xbf, 0x3e, 0xed, 0x5a, 0x25,
  0x5c, 0xfa, 0xff, 0xff, 0xff, 0xf5, 0x02, 0xaa, 0x6f, 0x25, 0x9b, 0x03,
  0x00, 0x00, 0x00, 0x62, 0x2f, 0x30, 0x41, 0x24, 0xf3, 0xfc, 0xff, 0xff,
  0xff, 0xd0, 0xb1, 0xea, 0x67, 0x25, 0xe1, 0xff, 0xff, 0xff, 0xff, 0x4e,
  0x2d, 0xa7, 0x59, 0x25, 0x43, 0xf8, 0xff, 0xff, 0xff, 0xcc, 0x71, 0x09,
  0x63, 0x25, 0x2c, 0x00, 0x00, 0x00, 0x00, 0x67, 0x01, 0xdf, 0x64, 0x25,
  0xf2, 0xfb, 0xff, 0xff, 0xff, 0x1b, 0x10, 0x94, 0x58, 0x25, 0x6b, 0x06,
  0x00, 0x00, 0x00, 0x25, 0x42, 0x00, 0x78, 0x25, 0x45, 0x02, 0x00, 0x00,
  0x00, 0xc1, 0x9b, 0xe2, 0x51, 0x25, 0x74, 0xf8, 0xff, 0xff, 0xff, 0x37,
  0x58, 0x9a, 0x50, 0x25, 0xd8, 0x0b, 0x5c, 0x01, 0x0c, 0x00, 0x89, 0x59,
  0x0f, 0xa0, 0x0e, 0x65, 0x5e, 0x32, 0x00, 0xd0, 0x9f, 0xb3, 0xd8, 0xa8,
  0x51, 0x97, 0xb7, 0x03, 0x00, 0xd5, 0x95, 0x71, 0x5f, 0x36, 0x15, 0xa7,
  0xfd, 0x81, 0xbb, 0x0f, 0x0f, 0x20, 0x47, 0xb3, 0xd0, 0x00, 0x90, 0xf7,
  0xf5, 0x13, 0xab, 0xf2, 0x39, 0x09, 0x01, 0x00, 0xb7, 0x95, 0x7f, 0xaf,
  0x90, 0x34, 0x3f, 0x57, 0x04, 0x92, 0x7b, 0x5d, 0x1d, 0x3e, 0x01, 0x34,
  0x00, 0xf0, 0xd9, 0x2f, 0x36, 0x11, 0x75, 0x80, 0x72, 0x06, 0x00, 0x92,
  0x2f, 0x73, 0x0e, 0x41, 0x4d, 0x0c, 0xb0, 0x9f, 0x8f, 0x91, 0x22, 0x06,
  0x85, 0x1e, 0x59, 0x00, 0x90, 0xf1, 0xf2, 0x8a, 0x8f, 0x50, 0x79, 0xd6,
  0x06, 0x00, 0x45, 0x73, 0x47, 0xfc, 0x3e, 0x65, 0x13, 0x3c, 0xaf, 0xa7,
  0x9f, 0xa1, 0x25, 0x83, 0x39, 0x2e, 0x00, 0xd0, 0x5f, 0xfc, 0xb7, 0x5b,
  0x00, 0x79, 0x5f, 0x00, 0x00, 0x23, 0x13, 0x4c, 0xe1, 0x1b, 0x0e, 0x19,
  0x5d, 0x69, 0x93, 0x1d, 0x08, 0x22, 0x6a, 0x41, 0x75, 0x00, 0x21, 0x31,
  0x16, 0xe6, 0xf2, 0x10, 0xa1, 0xc4, 0x0f, 0x00, 0x8d, 0x2f, 0x39, 0xaa,
  0x81, 0x49, 0xd1, 0x6d, 0x19, 0x7b, 0x2d, 0x27, 0x67, 0x4c, 0xd1, 0xcc,
  0x00, 0xf0, 0x95, 0x54, 0xb3, 0xb0, 0x34, 0x43, 0x66, 0x02, 0x00, 0xbb,
  0x75, 0xd2, 0x17, 0x67, 0xfd, 0x69, 0xd9, 0xaf, 0x2e, 0xe3, 0x76, 0x72,
  0x15, 0x2a, 0x25, 0x00, 0xf0, 0x52, 0xd0, 0x3f, 0x31, 0x93, 0x52, 0xdb,
  0xfe, 0xff, 0x8f, 0x1d, 0x13, 0x40, 0x60, 0x69, 0x32, 0xdb, 0xff, 0x7f,
  0x68, 0x91, 0x16, 0xc3, 0x10, 0x40, 0x77, 0xfa, 0xff, 0xff, 0xff, 0xff,
  0x0f, 0x00, 0x00, 0xe1, 0x31, 0x25, 0xb6, 0x29, 0x31, 0x79, 0x09, 0x00,
  0x70, 0x92, 0x34, 0x52, 0x91, 0x74, 0xa5, 0x95, 0x16, 0x00, 0x8f, 0x2d,
  0x0d, 0x00, 0xa3, 0x26, 0x12, 0x33, 0xc5, 0x49, 0x60, 0x00, 0x96, 0x3f,
  0x85, 0x77, 0x00, 0x00, 0xc5, 0x44, 0x15, 0x5e, 0x54, 0xb9, 0xe2, 0x00,
  0x00, 0x88, 0x60, 0xfd, 0xb6, 0xab, 0x65, 0x48, 0x15, 0x4f, 0x6c, 0x11,
  0x2d, 0x53, 0x11, 0xfd, 0x53, 0x00, 0xf0, 0xb3, 0x43, 0x2c, 0x43, 0x62,
  0xd6, 0x7f, 0x0a, 0x00, 0xb4, 0x25, 0x37, 0x22, 0x00, 0x46, 0x2d, 0x15,
  0x31, 0x15, 0x9c, 0x1e, 0x08, 0xa1, 0x4d, 0x55, 0x00, 0x20, 0x1d, 0xd2,
  0x1f, 0x41, 0x65, 0x58, 0x94, 0x08, 0x00, 0x29, 0x1d, 0xb6, 0x7b, 0x7e,
  0xfc, 0xe1, 0x9d, 0x80, 0x2d, 0x30, 0x8b, 0xe7, 0xdd, 0x19, 0x10, 0x00,
  0x90, 0x75, 0x73, 0xea, 0x70, 0x7a, 0x96, 0x32, 0x00, 0x00, 0x9f, 0x39,
  0x0e, 0x05, 0xfc, 0x68, 0x1f, 0x7d, 0x46, 0x45, 0x14, 0x00, 0x7c, 0x4a,
  0xc7, 0xc3, 0x00, 0x08, 0x11, 0x93, 0x21, 0x2b, 0xf0, 0xf2, 0x30, 0x00,
  0x00, 0x3d, 0x5f, 0x02, 0x11, 0xfc, 0x2b, 0x31, 0x0f, 0x3b, 0x4d, 0xbb,
  0x35, 0x17, 0x11, 0x83, 0x0d, 0x00, 0x90, 0x71, 0x52, 0xb1, 0xe1, 0x3c,
  0xde, 0x1f, 0x00, 0x00, 0x07, 0x20, 0x25, 0xa5, 0xd9, 0x45, 0x9c, 0x2b,
  0x67, 0x9f, 0x18, 0x59, 0x79, 0x63, 0x7b, 0x7d, 0x00, 0x50, 0x08, 0xa1,
  0x50, 0x34, 0x00, 0xc0, 0xf9, 0x07, 0xf0, 0xc4, 0xff, 0xff, 0xff, 0xff,
  0xff, 0xff, 0xff, 0xff, 0xff, 0xff, 0xff, 0xff, 0xff, 0xff, 0xff, 0xff,
  0x15, 0x05, 0x00, 0x00, 0x00, 0xfb, 0x7e, 0xc1, 0x57, 0x28, 0xbd, 0xfe,
  0xff, 0xff, 0xff, 0xfb, 0x7e, 0xc1, 0x57, 0x28, 0xb9, 0xfc, 0xff, 0xff,
  0xff, 0xfb, 0x7e, 0xc1, 0x57, 0x28, 0x00, 0x00, 0x58, 0x13, 0x54, 0x01,
  0xac, 0xbb, 0x00, 0x30, 0xc6, 0xf3, 0x79, 0xab, 0xbe, 0x1a, 0x2c, 0x53,
  0xc9, 0x02, 0x00, 0x58, 0x31, 0xae, 0xa9, 0x0c, 0xae, 0xf6, 0xff, 0x4c,
  0xb7, 0xe4, 0x48, 0xff, 0x8b, 0x20, 0xfe, 0x1f, 0x9a, 0xca, 0x04, 0x04,
  0x46, 0xfd, 0xff, 0x03, 0x18, 0x3d, 0x00, 0x4c, 0x2e, 0xb6, 0xff, 0x89,
  0xf4, 0x7f, 0xc4, 0xdf, 0xf6, 0x08, 0xfe, 0x49, 0xf9, 0x0d, 0x1a, 0xc7,
  0xff, 0x5b, 0xe9, 0x6c, 0x03, 0x92, 0x1e, 0xf9, 0xff, 0xff, 0x50, 0x5d,
  0x00, 0x00, 0x5a, 0x0a, 0x80, 0xb7, 0xea, 0x88, 0x2f, 0x2f, 0x8a, 0xa5,
  0x61, 0x64, 0xfd, 0x7f, 0x18, 0x6e, 0x4c, 0x75, 0x75, 0xc3, 0xfe, 0x5f,
  0xb1, 0xf3, 0x74, 0x6a, 0x07, 0x33, 0xf5, 0xff, 0x00, 0x22, 0x77, 0x00,
  0x90, 0x5d, 0x86, 0xff, 0xb7, 0x5e, 0x3a, 0x40, 0xae, 0x62, 0xff, 0x5f,
  0x68, 0xc2, 0xcc, 0x75, 0x1b, 0xfe, 0xff, 0x01, 0x16, 0x00, 0x00, 0x6c,
  0x59, 0xf0, 0xaf, 0x55, 0xbb, 0xf0, 0x03, 0x99, 0x3d, 0x0f, 0xfd, 0xff,
  0x6f, 0x81, 0x65, 0xe6, 0x00, 0x86, 0xe4, 0xff, 0x7f, 0xe5, 0xa6, 0x01,
  0x9f, 0x63, 0xfe, 0x01, 0x00, 0x54, 0x17, 0xe0, 0xc1, 0x9d, 0xf2, 0xff,
  0x00, 0xc7, 0x44, 0x79, 0xa8, 0x54, 0xd3, 0xff, 0x0f, 0xb4, 0x8c, 0x02,
  0xf8, 0xdd, 0x99, 0x0a, 0xff, 0x0f, 0x00, 0x57, 0x13, 0x00, 0x7c, 0xbb,
  0x92, 0x9d, 0xd0, 0xd7, 0xba, 0x26, 0x7f, 0xff, 0x1f, 0xee, 0x62, 0x39,
  0xa6, 0xd1, 0x24, 0xfc, 0xff, 0x42, 0xb5, 0x9b, 0xb6, 0xd7, 0xff, 0x7f,
  0x00, 0x2a, 0x06, 0x00, 0xc4, 0x1c, 0xf0, 0x1f, 0x00, 0xe6, 0x57, 0x3c,
  0x0c, 0x17, 0xe1, 0xff, 0x8f, 0x02, 0x99, 0x8a, 0xd0, 0x61, 0x71, 0xff,
  0xff, 0x7f, 0x00, 0x00, 0x42, 0xba, 0xef, 0x02, 0xbc, 0xac, 0xd3, 0x5e,
  0x67, 0x37, 0x2c, 0x9b, 0x71, 0xff, 0xcf, 0x39, 0x9d, 0x62, 0x0f, 0x45,
  0xfc, 0xff, 0x28, 0x74, 0x40, 0xef, 0xf7, 0xfb, 0x7f, 0x00, 0x28, 0x46,
  0x00, 0x90, 0x67, 0xf1, 0xff, 0xbd, 0xb4, 0x44, 0x13, 0xcc, 0x72, 0x5f,
  0xff, 0x0f, 0x5c, 0x62, 0x69, 0xc0, 0xff, 0x7f, 0x00, 0xef, 0x04, 0x80,
  0x6c, 0xb4, 0xdc, 0xfa, 0x30, 0x14, 0x8e, 0x5c, 0x56, 0xf8, 0x97, 0xdd,
  0x72, 0x77, 0x34, 0x3a, 0xfc, 0xbf, 0xfc, 0x2f, 0x9d, 0x2f, 0xd9, 0xfb,
  0xff, 0x7f, 0x58, 0x3f, 0x00, 0x90, 0x33, 0x87, 0x00, 0x2f, 0xbb, 0x21,
  0x1b, 0x6b, 0x57, 0xfc, 0xde, 0xff, 0xb7, 0xad, 0x24, 0x51, 0xd6, 0x79,
  0x6e, 0x33, 0xf2, 0xff, 0x2b, 0x95, 0xc2, 0xa7, 0xff, 0x37, 0xc8, 0xcd,
  0x08, 0x0b, 0x3d, 0x00, 0xe0, 0xbf, 0x00, 0x90, 0xe8, 0xbe, 0x29, 0x19,
  0xe3, 0xdf, 0xbf, 0xcd, 0xfe, 0x7f, 0xd4, 0x42, 0x58, 0x8f, 0x42, 0xf4,
  0xff, 0xff, 0xff, 0x00, 0xa1, 0x0f, 0x00, 0xaf, 0xd1, 0xae, 0x18, 0xe4,
  0x83, 0x2f, 0x5f, 0x5d, 0xe1, 0xbf, 0xaa, 0x2c, 0xff, 0x46, 0x60, 0x96,
  0xff, 0xff, 0x0b, 0x32, 0xc0, 0x44, 0xe0, 0xff, 0xff, 0x41, 0xcb, 0x01,
  0xe0, 0x18, 0xa5, 0x00, 0xdf, 0x55, 0x0a, 0x70, 0x91, 0x51, 0xe8, 0xed,
  0xff, 0x6b, 0x39, 0xac, 0xd7, 0xb5, 0x76, 0xff, 0x7f, 0x6b, 0x16, 0xc7,
  0x83, 0xf8, 0xff, 0x00, 0xe0, 0x9f, 0x30, 0x17, 0x1c, 0x00, 0xd4, 0x38,
  0x42, 0xf0, 0x3f, 0x19, 0x46, 0xa5, 0xff, 0xbf, 0x8c, 0x65, 0x18, 0xc7,
  0x6c, 0xc8, 0xff, 0xd3, 0x20, 0x87, 0x51, 0xbe, 0xec, 0xff, 0x7f, 0x80,
  0xfe, 0x07, 0x80, 0x00, 0xe8, 0x26, 0xfc, 0x07, 0x60, 0x92, 0x3b, 0xc4,
  0xd6, 0x7f, 0x83, 0xff, 0x1f, 0xf9, 0x0f, 0x44, 0x6d, 0xca, 0x97, 0xfc,
  0xff, 0x7f, 0xe8, 0x4f, 0x00, 0xc0, 0xac, 0xb4, 0x00, 0x0f, 0x36, 0x53,
  0x50, 0xcc, 0xc6, 0x1a, 0xea, 0xff, 0x2f, 0xa8, 0x9c, 0x74, 0xb1, 0x2d,
  0x08, 0xf8, 0xff, 0xfb, 0xa5, 0x0a, 0x8e, 0x17, 0xed, 0xff, 0x07, 0x00,
  0xa4, 0x04, 0x80, 0xaf, 0x7d, 0x43, 0x2b, 0xfe, 0x0b, 0x46, 0xfa, 0xb7,
  0xff, 0xff, 0x94, 0x2b, 0x0f, 0xcb, 0x08, 0xbc, 0xc8, 0xff, 0x37, 0x9a,
  0x16, 0x41, 0xd8, 0xff, 0x3f, 0xc0, 0x56, 0x00, 0x00, 0xd6, 0xae, 0xf0,
  0xef, 0x7d, 0x7f, 0xf3, 0xee, 0xac, 0x4e, 0x6b, 0x96, 0xfe, 0xff, 0x05,
  0x16, 0xb3, 0x0a, 0xfc, 0xff, 0xf0, 0x87, 0x55, 0x2c, 0xd3, 0x3f, 0x00,
  0x80, 0xeb, 0xf2, 0x7f, 0x3f, 0xc0, 0xab, 0x4a, 0xa0, 0xda, 0x6b, 0xcb,
  0x91, 0xff, 0x8f, 0xfb, 0x89, 0xa5, 0x5b, 0xfe, 0xff, 0x29, 0x0e, 0xf3,
  0x1b, 0x27, 0x56, 0xff, 0x1f, 0x00, 0x3a, 0x15, 0x00, 0xfe, 0xf5, 0x2e,
  0x42, 0x9d, 0xa0, 0xb0, 0xb3, 0xfd, 0xbf, 0x17, 0x05, 0xe1, 0xb8, 0x1b,
  0x87, 0xd0, 0xff, 0x27, 0xa8, 0xb3, 0x8a, 0xd7, 0xff, 0x3f, 0x00, 0x72,
  0x00, 0x00, 0xb6, 0x39, 0xfc, 0x77, 0xa2, 0x1d, 0x54, 0x81, 0xe3, 0x7e,
  0x56, 0xf4, 0xff, 0xff, 0x11, 0xf6, 0xd1, 0x2c, 0xdb, 0xd0, 0xff, 0x77,
  0x2b, 0x3f, 0x49, 0xee, 0xe0, 0x7f, 0x00, 0x80, 0xbe, 0x2c, 0x91, 0x7d,
  0x80, 0xb7, 0xa8, 0x51, 0x10, 0xda, 0x9a, 0xc7, 0x3c, 0xf8, 0xff, 0xb2,
  0x44, 0xfd, 0x31, 0x8c, 0x17, 0xfd, 0x3f, 0xa3, 0x6b, 0xce, 0x4c, 0x86,
  0xcd, 0xff, 0x0f, 0x00, 0x16, 0x0a, 0x00, 0x9d, 0x06, 0xff, 0xff, 0xfd,
  0xd8, 0x52, 0x5b, 0x7b, 0xff, 0xbf, 0xd5, 0xf3, 0x98, 0xff, 0xf2, 0xff,
  0x1f, 0x80, 0xde, 0x02, 0xe0, 0xa2, 0x02, 0x02, 0x96, 0xee, 0xcf, 0x95,
  0x06, 0x80, 0x06, 0x0e, 0xf3, 0x03, 0x00, 0x14, 0x00, 0xf8, 0xff, 0x9f,
  0x1f, 0xf8, 0xff, 0xff, 0xff, 0xff, 0xff, 0xff, 0xff, 0xff, 0xff, 0xff,
  0x00, 0x00, 0x00, 0x00, 0x86, 0xf3, 0xff, 0xff, 0x04, 0x00, 0x00, 0x00,
  0x64, 0x0c, 0x00, 0x00, 0x43, 0x4f, 0x50, 0x31, 0x01, 0x00, 0x10, 0x00,
  0x07, 0x18, 0x00, 0x00, 0x00, 0x00, 0x06, 0x10, 0x05, 0x00, 0x00, 0x00,
  0x05, 0x00, 0x00, 0x00, 0x05, 0x00, 0x00, 0x00, 0x02, 0x00, 0x11, 0x03,
  0x30, 0x01, 0x00, 0x00, 0x30, 0x40, 0x00, 0x00, 0xb0, 0x05, 0x00, 0x00,
  0x31, 0x01, 0x01, 0x00, 0x31, 0x40, 0x00, 0x00, 0x90, 0x01, 0x00, 0x00,
  0x32, 0x40, 0x00, 0x00, 0xe0, 0x01, 0x00, 0x00, 0x10, 0x00, 0x00, 0x00,
  0x0f, 0x01, 0x01, 0x00, 0x00, 0x40, 0x00, 0x00, 0x70, 0x03, 0x00, 0x00,
  0x01, 0x40, 0x00, 0x00, 0x00, 0x00, 0x00, 0x00, 0x02, 0x40, 0x00, 0x00,
  0x00, 0x00, 0x00, 0x00, 0x03, 0x40, 0x00, 0x00, 0x00, 0x00, 0x00, 0x00,
  0x0b, 0x01, 0x00, 0x00, 0x0c, 0x01, 0x00, 0x00, 0x0a, 0x01, 0x31, 0x00,
  0x04, 0x01, 0x0c, 0x00, 0x06, 0x40, 0x00, 0x00, 0x01, 0x00, 0x00, 0x00,
  0x05, 0x40, 0x00, 0x00, 0x8a, 0x02, 0x00, 0x00, 0x04, 0x40, 0x00, 0x00,
  0x0d, 0x00, 0x00, 0x00, 0x09, 0x01, 0x13, 0x00, 0x05, 0x01, 0x01, 0x00,
  0x07, 0x01, 0x00, 0x00, 0x00, 0x01, 0x00, 0x00, 0x01, 0x01, 0x01, 0x00,
  0x03, 0x01, 0x00, 0x00, 0x02, 0x01, 0x01, 0x00, 0x1f, 0x01, 0x01, 0x00,
  0x10, 0x40, 0x00, 0x00, 0x00, 0x00, 0x00, 0x00, 0x11, 0x40, 0x00, 0x00,
  0x00, 0x00, 0x00, 0x00, 0x12, 0x40, 0x00, 0x00, 0x00, 0x00, 0x00, 0x00,
  0x13, 0x40, 0x00, 0x00, 0x00, 0x00, 0x00, 0x00, 0x1b, 0x01, 0x00, 0x00,
  0x1c, 0x01, 0x00, 0x00, 0x1a, 0x01, 0x31, 0x00, 0x12, 0x01, 0x00, 0x00,
  0x11, 0x01, 0x31, 0x00, 0x13, 0x01, 0x07, 0x00, 0x16, 0x40, 0x00, 0x00,
  0x01, 0x00, 0x00, 0x00, 0x15, 0x40, 0x00, 0x00, 0x90, 0x01, 0x00, 0x00,
  0x14, 0x40, 0x00, 0x00, 0x08, 0x00, 0x00, 0x00, 0x18, 0x01, 0x80, 0xff,
  0x14, 0x01, 0x01, 0x00, 0x21, 0x01, 0x00, 0x00, 0x20, 0x01, 0x02, 0x00,
  0x22, 0x01, 0x04, 0x00, 0x28, 0x01, 0x01, 0x00, 0x20, 0x40, 0x00, 0x00,
  0xe0, 0x01, 0x00, 0x00, 0x21, 0x40, 0x00, 0x00, 0x90, 0x01, 0x00, 0x00,
  0x29, 0x01, 0x01, 0x00, 0x22, 0x40, 0x00, 0x00, 0x90, 0x01, 0x00, 0x00,
  0x23, 0x40, 0x00, 0x00, 0x50, 0x00, 0x00, 0x00, 0x25, 0x01, 0x00, 0x00,
  0x26, 0x01, 0x80, 0xff, 0x27, 0x01, 0x7f, 0x00, 0x16, 0x01, 0x00, 0x00,
  0x15, 0x01, 0x31, 0x00, 0x17, 0x01, 0x07, 0x00, 0x0d, 0x01, 0x06, 0x00,
  0x2d, 0x01, 0x0e, 0x00, 0x24, 0x01, 0x00, 0x00, 0x2f, 0x01, 0x00, 0x00,
  0x11, 0x00, 0x00, 0x00, 0x02, 0x00, 0x00, 0x00, 0x00, 0x40, 0x00, 0x00,
  0x00, 0x00, 0x00, 0x00, 0x0b, 0x01, 0x31, 0x00, 0x0c, 0x01, 0x31, 0x00,
  0x0a, 0x01, 0x00, 0x00, 0x04, 0x01, 0x07, 0x00, 0x05, 0x40, 0x00, 0x00,
  0x08, 0x00, 0x00, 0x00, 0x04, 0x40, 0x00, 0x00, 0x08, 0x00, 0x00, 0x00,
  0x09, 0x01, 0x80, 0xff, 0x01, 0x01, 0x00, 0x00, 0x02, 0x01, 0x00, 0x00,
  0x10, 0x40, 0x00, 0x00, 0x90, 0x01, 0x00, 0x00, 0x1b, 0x01, 0x18, 0x00,
  0x1c, 0x01, 0x18, 0x00, 0x1a, 0x01, 0x00, 0x00, 0x12, 0x01, 0x18, 0x00,
  0x11, 0x01, 0x00, 0x00, 0x15, 0x40, 0x00, 0x00, 0x08, 0x00, 0x00, 0x00,
  0x21, 0x01, 0x01, 0x00, 0x20, 0x01, 0x00, 0x00, 0x22, 0x01, 0x02, 0x00,
  0x16, 0x01, 0x06, 0x00, 0x15, 0x01, 0x01, 0x00, 0x05, 0x00, 0x00, 0x00,
  0x30, 0x40, 0x00, 0x00, 0x90, 0x07, 0x00, 0x00, 0x31, 0x40, 0x00, 0x00,
  0x60, 0x02, 0x00, 0x00, 0x32, 0x40, 0x00, 0x00, 0x70, 0x02, 0x00, 0x00,
  0x12, 0x00, 0x01, 0x00, 0x10, 0x00, 0x00, 0x00, 0x00, 0x40, 0x00, 0x00,
  0x90, 0x01, 0x00, 0x00, 0x0b, 0x01, 0x00, 0x00, 0x0c, 0x01, 0x00, 0x00,
  0x0a, 0x01, 0x18, 0x00, 0x05, 0x40, 0x00, 0x00, 0xc8, 0x00, 0x00, 0x00,
  0x01, 0x01, 0x01, 0x00, 0x02, 0x01, 0x01, 0x00, 0x10, 0x40, 0x00, 0x00,
  0x00, 0x00, 0x00, 0x00, 0x1b, 0x01, 0x00, 0x00, 0x1c, 0x01, 0x00, 0x00,
  0x1a, 0x01, 0x18, 0x00, 0x12, 0x01, 0x00, 0x00, 0x11, 0x01, 0x18, 0x00,
  0x13, 0x01, 0x0f, 0x00, 0x15, 0x40, 0x00, 0x00, 0x90, 0x01, 0x00, 0x00,
  0x14, 0x40, 0x00, 0x00, 0x10, 0x00, 0x00, 0x00, 0x21, 0x01, 0x00, 0x00,
  0x20, 0x01, 0x02, 0x00, 0x22, 0x01, 0x04, 0x00, 0x20, 0x40, 0x00, 0x00,
  0x00, 0x03, 0x00, 0x00, 0x21, 0x40, 0x00, 0x00, 0xd0, 0x01, 0x00, 0x00,
  0x22, 0x40, 0x00, 0x00, 0x60, 0x02, 0x00, 0x00, 0x23, 0x40, 0x00, 0x00,
  0xa0, 0x00, 0x00, 0x00, 0x16, 0x01, 0x00, 0x00, 0x15, 0x01, 0x19, 0x00,
  0x17, 0x01, 0x0f, 0x00, 0x11, 0x00, 0x00, 0x00, 0x02, 0x00, 0x00, 0x00,
  0x00, 0x40, 0x00, 0x00, 0x00, 0x00, 0x00, 0x00, 0x0b, 0x01, 0x18, 0x00,
  0x0c, 0x01, 0x18, 0x00, 0x0a, 0x01, 0x00, 0x00, 0x04, 0x01, 0x0f, 0x00,
  0x05, 0x40, 0x00, 0x00, 0x10, 0x00, 0x00, 0x00, 0x04, 0x40, 0x00, 0x00,
  0x10, 0x00, 0x00, 0x00, 0x01, 0x01, 0x00, 0x00, 0x03, 0x01, 0x01, 0x00,
  0x02, 0x01, 0x00, 0x00, 0x10, 0x40, 0x00, 0x00, 0x90, 0x01, 0x00, 0x00,
  0x1b, 0x01, 0x0c, 0x00, 0x1c, 0x01, 0x0c, 0x00, 0x1a, 0x01, 0x00, 0x00,
  0x12, 0x01, 0x0c, 0x00, 0x11, 0x01, 0x00, 0x00, 0x15, 0x40, 0x00, 0x00,
  0x10, 0x00, 0x00, 0x00, 0x21, 0x01, 0x01, 0x00, 0x20, 0x01, 0x00, 0x00,
  0x22, 0x01, 0x02, 0x00, 0x16, 0x01, 0x03, 0x00, 0x15, 0x01, 0x01, 0x00,
  0x05, 0x00, 0x00, 0x00, 0x00, 0x40, 0x00, 0x00, 0x90, 0x01, 0x00, 0x00,
  0x0b, 0x01, 0x00, 0x00, 0x0c, 0x01, 0x00, 0x00, 0x04, 0x01, 0xcf, 0x00,
  0x05, 0x40, 0x00, 0x00, 0xd0, 0x00, 0x00, 0x00, 0x04, 0x40, 0x00, 0x00,
  0xd0, 0x00, 0x00, 0x00, 0x03, 0x01, 0x00, 0x00, 0x10, 0x40, 0x00, 0x00,
  0x40, 0x00, 0x00, 0x00, 0x1b, 0x01, 0x00, 0x00, 0x1c, 0x01, 0x00, 0x00,
  0x12, 0x01, 0x00, 0x00, 0x13, 0x01, 0x02, 0x00, 0x15, 0x40, 0x00, 0x00,
  0x03, 0x00, 0x00, 0x00, 0x14, 0x40, 0x00, 0x00, 0x03, 0x00, 0x00, 0x00,
  0x18, 0x01, 0xfe, 0xff, 0x21, 0x01, 0x00, 0x00, 0x22, 0x01, 0x00, 0x00,
  0x28, 0x01, 0x00, 0x00, 0x20, 0x40, 0x00, 0x00, 0x20, 0x0a, 0x00, 0x00,
  0x21, 0x40, 0x00, 0x00, 0x10, 0x03, 0x00, 0x00, 0x29, 0x01, 0x00, 0x00,
  0x22, 0x40, 0x00, 0x00, 0x00, 0x0a, 0x00, 0x00, 0x23, 0x40, 0x00, 0x00,
  0x20, 0x00, 0x00, 0x00, 0x16, 0x01, 0x00, 0x00, 0x17, 0x01, 0x07, 0x00,
  0x2f, 0x01, 0x03, 0x00, 0x02, 0x00, 0x00, 0x00, 0x00, 0x40, 0x00, 0x00,
  0x40, 0x00, 0x00, 0x00, 0x0a, 0x01, 0x02, 0x00, 0x04, 0x01, 0x00, 0x00,
  0x05, 0x40, 0x00, 0x00, 0x03, 0x00, 0x00, 0x00, 0x04, 0x40, 0x00, 0x00,
  0x01, 0x00, 0x00, 0x00, 0x09, 0x01, 0xfe, 0xff, 0x10, 0x40, 0x00, 0x00,
  0x50, 0x00, 0x00, 0x00, 0x13, 0x01, 0x00, 0x00, 0x16, 0x40, 0x00, 0x00,
  0x10, 0x00, 0x00, 0x00, 0x15, 0x40, 0x00, 0x00, 0x10, 0x00, 0x00, 0x00,
  0x14, 0x40, 0x00, 0x00, 0x10, 0x00, 0x00, 0x00, 0x14, 0x01, 0x41, 0x00,
  0x20, 0x01, 0x02, 0x00, 0x2f, 0x01, 0x00, 0x00, 0x05, 0x00, 0x00, 0x00,
  0x30, 0x40, 0x00, 0x00, 0x10, 0x01, 0x00, 0x00, 0x31, 0x01, 0x03, 0x01,
  0x31, 0x40, 0x00, 0x00, 0x00, 0x58, 0x00, 0x00, 0x32, 0x40, 0x00, 0x00,
  0x00, 0x04, 0x00, 0x00, 0x10, 0x00, 0x00, 0x00, 0x25, 0x40, 0x00, 0x00,
  0x01, 0x00, 0x00, 0x00, 0x26, 0x40, 0x00, 0x00, 0x01, 0x00, 0x00, 0x00,
  0x24, 0x40, 0x00, 0x00, 0x01, 0x00, 0x00, 0x00, 0x0a, 0x01, 0x00, 0x00,
  0x04, 0x01, 0x02, 0x00, 0x04, 0x40, 0x00, 0x00, 0x03, 0x00, 0x00, 0x00,
  0x10, 0x40, 0x00, 0x00, 0x00, 0x00, 0x00, 0x00, 0x13, 0x01, 0x02, 0x00,
  0x16, 0x40, 0x00, 0x00, 0x40, 0x00, 0x00, 0x00, 0x15, 0x40, 0x00, 0x00,
  0x40, 0x00, 0x00, 0x00, 0x14, 0x40, 0x00, 0x00, 0x40, 0x00, 0x00, 0x00,
  0x18, 0x01, 0x7f, 0x00, 0x14, 0x01, 0x45, 0x01, 0x25, 0x01, 0x10, 0x30,
  0x0d, 0x01, 0x16, 0x00, 0x2d, 0x01, 0x16, 0x00, 0x8d, 0x01, 0x06, 0x00,
  0x8f, 0x01, 0x01, 0x00, 0x80, 0x40, 0x00, 0x00, 0x50, 0x00, 0x00, 0x00,
  0x81, 0x40, 0x00, 0x00, 0x00, 0x00, 0x00, 0x00, 0x82, 0x40, 0x00, 0x00,
  0x00, 0x00, 0x00, 0x00, 0x83, 0x40, 0x00, 0x00, 0x00, 0x00, 0x00, 0x00,
  0x8b, 0x01, 0x00, 0x00, 0x8c, 0x01, 0x00, 0x00, 0x8a, 0x01, 0x00, 0x00,
  0x86, 0x40, 0x00, 0x00, 0x10, 0x00, 0x00, 0x00, 0x85, 0x40, 0x00, 0x00,
  0x10, 0x00, 0x00, 0x00, 0x84, 0x40, 0x00, 0x00, 0x10, 0x00, 0x00, 0x00,
  0x89, 0x01, 0xfe, 0xff, 0x85, 0x01, 0x41, 0x00, 0x80, 0x01, 0x04, 0x00,
  0x11, 0x00, 0x00, 0x00, 0x06, 0x00, 0x02, 0x00, 0x00, 0x40, 0x00, 0x00,
  0x00, 0x00, 0x00, 0x00, 0x06, 0x40, 0x00, 0x00, 0x40, 0x00, 0x00, 0x00,
  0x05, 0x40, 0x00, 0x00, 0x40, 0x00, 0x00, 0x00, 0x04, 0x40, 0x00, 0x00,
  0x40, 0x00, 0x00, 0x00, 0x09, 0x01, 0x00, 0x00, 0x05, 0x01, 0x49, 0x00,
  0x10, 0x40, 0x00, 0x00, 0x40, 0x00, 0x00, 0x00, 0x16, 0x40, 0x00, 0x00,
  0x04, 0x00, 0x00, 0x00, 0x15, 0x40, 0x00, 0x00, 0x0c, 0x00, 0x00, 0x00,
  0x14, 0x40, 0x00, 0x00, 0x0c, 0x00, 0x00, 0x00, 0x18, 0x01, 0xfe, 0xff,
  0x14, 0x01, 0x05, 0x80, 0x25, 0x01, 0x00, 0x00, 0x26, 0x01, 0x7e, 0xff,
  0x27, 0x01, 0x7d, 0x00, 0x8d, 0x01, 0x0a, 0x00, 0x8f, 0x01, 0x00, 0x00,
  0x80, 0x40, 0x00, 0x00, 0x10, 0x05, 0x00, 0x00, 0x86, 0x40, 0x00, 0x00,
  0x04, 0x00, 0x00, 0x00, 0x85, 0x40, 0x00, 0x00, 0x04, 0x00, 0x00, 0x00,
  0x84, 0x40, 0x00, 0x00, 0x04, 0x00, 0x00, 0x00, 0x89, 0x01, 0x00, 0x00,
  0x85, 0x01, 0x09, 0x00, 0x06, 0x00, 0x08, 0x00, 0x00, 0x40, 0x00, 0x00,
  0x40, 0x00, 0x00, 0x00, 0x06, 0x40, 0x00, 0x00, 0x04, 0x00, 0x00, 0x00,
  0x05, 0x40, 0x00, 0x00, 0x0c, 0x00, 0x00, 0x00, 0x04, 0x40, 0x00, 0x00,
  0x0c, 0x00, 0x00, 0x00, 0x05, 0x01, 0x09, 0x00, 0x10, 0x40, 0x00, 0x00,
  0xc0, 0x00, 0x00, 0x00, 0x13, 0x01, 0x00, 0x00, 0x16, 0x40, 0x00, 0x00,
  0x40, 0x00, 0x00, 0x00, 0x15, 0x40, 0x00, 0x00, 0x40, 0x00, 0x00, 0x00,
  0x14, 0x40, 0x00, 0x00, 0x40, 0x00, 0x00, 0x00, 0x14, 0x01, 0x45, 0x01,
  0x20, 0x01, 0x00, 0x00, 0x0d, 0x01, 0x0a, 0x00, 0x2d, 0x01, 0x0e, 0x00,
  0x05, 0x00, 0x02, 0x00, 0x00, 0x40, 0x00, 0x00, 0xc0, 0x00, 0x00, 0x00,
  0x04, 0x01, 0x00, 0x00, 0x06, 0x40, 0x00, 0x00, 0x40, 0x00, 0x00, 0x00,
  0x05, 0x40, 0x00, 0x00, 0x40, 0x00, 0x00, 0x00, 0x04, 0x40, 0x00, 0x00,
  0x40, 0x00, 0x00, 0x00, 0x05, 0x01, 0x49, 0x00, 0x10, 0x40, 0x00, 0x00,
  0x00, 0x01, 0x00, 0x00, 0x14, 0x01, 0x45, 0x00, 0x0d, 0x01, 0x16, 0x00,
  0x2d, 0x01, 0x16, 0x00, 0x06, 0x00, 0x07, 0x00, 0x0f, 0x01, 0x00, 0x00,
  0x00, 0x40, 0x00, 0x00, 0x20, 0x05, 0x00, 0x00, 0x06, 0x40, 0x00, 0x00,
  0x04, 0x00, 0x00, 0x00, 0x05, 0x40, 0x00, 0x00, 0x04, 0x00, 0x00, 0x00,
  0x04, 0x40, 0x00, 0x00, 0x04, 0x00, 0x00, 0x00, 0x05, 0x01, 0x09, 0x00,
  0x10, 0x40, 0x00, 0x00, 0x40, 0x00, 0x00, 0x00, 0x14, 0x01, 0x45, 0x01,
  0x8f, 0x01, 0x01, 0x00, 0x80, 0x40, 0x00, 0x00, 0x00, 0x01, 0x00, 0x00,
  0x86, 0x40, 0x00, 0x00, 0x40, 0x00, 0x00, 0x00, 0x85, 0x40, 0x00, 0x00,
  0x40, 0x00, 0x00, 0x00, 0x84, 0x40, 0x00, 0x00, 0x40, 0x00, 0x00, 0x00,
  0x85, 0x01, 0x49, 0x00, 0x80, 0x01, 0x00, 0x00, 0x06, 0x00, 0x02, 0x00,
  0x0f, 0x01, 0x01, 0x00, 0x00, 0x40, 0x00, 0x00, 0x00, 0x01, 0x00, 0x00,
  0x06, 0x40, 0x00, 0x00, 0x40, 0x00, 0x00, 0x00, 0x05, 0x40, 0x00, 0x00,
  0x40, 0x00, 0x00, 0x00, 0x04, 0x40, 0x00, 0x00, 0x40, 0x00, 0x00, 0x00,
  0x05, 0x01, 0x49, 0x00, 0x10, 0x40, 0x00, 0x00, 0x80, 0x00, 0x00, 0x00,
  0x8f, 0x01, 0x00, 0x00, 0x80, 0x40, 0x00, 0x00, 0x30, 0x05, 0x00, 0x00,
  0x86, 0x40, 0x00, 0x00, 0x04, 0x00, 0x00, 0x00, 0x85, 0x40, 0x00, 0x00,
  0x04, 0x00, 0x00, 0x00, 0x84, 0x40, 0x00, 0x00, 0x04, 0x00, 0x00, 0x00,
  0x85, 0x01, 0x09, 0x00, 0x2f, 0x01, 0x03, 0x00, 0x06, 0x00, 0x02, 0x00,
  0x00, 0x40, 0x00, 0x00, 0xc0, 0x00, 0x00, 0x00, 0x14, 0x01, 0x45, 0x00,
  0x8f, 0x01, 0x01, 0x00, 0x80, 0x40, 0x00, 0x00, 0x80, 0x00, 0x00, 0x00,
  0x86, 0x40, 0x00, 0x00, 0x40, 0x00, 0x00, 0x00, 0x85, 0x40, 0x00, 0x00,
  0x40, 0x00, 0x00, 0x00, 0x84, 0x40, 0x00, 0x00, 0x40, 0x00, 0x00, 0x00,
  0x85, 0x01, 0x49, 0x00, 0x2f, 0x01, 0x00, 0x00, 0x06, 0x00, 0x09, 0x00,
  0x00, 0x40, 0x00, 0x00, 0x80, 0x00, 0x00, 0x00, 0x14, 0x01, 0x45, 0x01,
  0x8f, 0x01, 0x00, 0x00, 0x80, 0x40, 0x00, 0x00, 0x40, 0x05, 0x00, 0x00,
  0x86, 0x40, 0x00, 0x00, 0x04, 0x00, 0x00, 0x00, 0x85, 0x40, 0x00, 0x00,
  0x04, 0x00, 0x00, 0x00, 0x84, 0x40, 0x00, 0x00, 0x04, 0x00, 0x00, 0x00,
  0x85, 0x01, 0x09, 0x00, 0x06, 0x00, 0x02, 0x00, 0x14, 0x01, 0x45, 0x00,
  0x80, 0x40, 0x00, 0x00, 0x30, 0x05, 0x00, 0x00, 0x06, 0x00, 0x09, 0x00,
  0x24, 0x40, 0x01, 0x00, 0x01, 0x00, 0x00, 0x00, 0x0f, 0x01, 0x00, 0x00,
  0x00, 0x40, 0x00, 0x00, 0x50, 0x05, 0x00, 0x00, 0x06, 0x40, 0x00, 0x00,
  0x04, 0x00, 0x00, 0x00, 0x05, 0x40, 0x00, 0x00, 0x04, 0x00, 0x00, 0x00,
  0x04, 0x40, 0x00, 0x00, 0x04, 0x00, 0x00, 0x00, 0x05, 0x01, 0x09, 0x00,
  0x18, 0x01, 0x00, 0x00, 0x14, 0x01, 0x45, 0x01, 0x26, 0x01, 0x80, 0xff,
  0x27, 0x01, 0x7f, 0x00, 0x8f, 0x01, 0x01, 0x00, 0x80, 0x40, 0x00, 0x00,
  0x80, 0x00, 0x00, 0x00, 0x86, 0x40, 0x00, 0x00, 0x40, 0x00, 0x00, 0x00,
  0x85, 0x40, 0x00, 0x00, 0x40, 0x00, 0x00, 0x00, 0x84, 0x40, 0x00, 0x00,
  0x40, 0x00, 0x00, 0x00, 0x85, 0x01, 0x49, 0x00, 0x06, 0x00, 0x01, 0x00,
  0x24, 0x40, 0x1f, 0x00, 0x00, 0x00, 0x00, 0x40, 0x0f, 0x01, 0x01, 0x00,
  0x00, 0x40, 0x00, 0x00, 0x80, 0x00, 0x00, 0x00, 0x06, 0x40, 0x00, 0x00,
  0x40, 0x00, 0x00, 0x00, 0x05, 0x40, 0x00, 0x00, 0x40, 0x00, 0x00, 0x00,
  0x04, 0x40, 0x00, 0x00, 0x40, 0x00, 0x00, 0x00, 0x05, 0x01, 0x49, 0x00,
  0x10, 0x40, 0x00, 0x00, 0x00, 0x01, 0x00, 0x00, 0x8f, 0x01, 0x00, 0x00,
  0x80, 0x40, 0x00, 0x00, 0x60, 0x05, 0x00, 0x00, 0x86, 0x40, 0x00, 0x00,
  0x04, 0x00, 0x00, 0x00, 0x85, 0x40, 0x00, 0x00, 0x04, 0x00, 0x00, 0x00,
  0x84, 0x40, 0x00, 0x00, 0x04, 0x00, 0x00, 0x00, 0x85, 0x01, 0x09, 0x00,
  0x06, 0x00, 0x00, 0x00, 0x24, 0x40, 0x00, 0x00, 0x01, 0x00, 0x00, 0x00,
  0x00, 0x40, 0x00, 0x00, 0x00, 0x01, 0x00, 0x00, 0x80, 0x40, 0x00, 0x00,
  0x70, 0x05, 0x00, 0x00, 0x06, 0x00, 0x01, 0x00, 0x24, 0x40, 0x1f, 0x00,
  0x00, 0x00, 0x00, 0x40, 0x10, 0x40, 0x00, 0x00, 0xc0, 0x00, 0x00, 0x00,
  0x8f, 0x01, 0x01, 0x00, 0x80, 0x40, 0x00, 0x00, 0x80, 0x00, 0x00, 0x00,
  0x86, 0x40, 0x00, 0x00, 0x40, 0x00, 0x00, 0x00, 0x85, 0x40, 0x00, 0x00,
  0x40, 0x00, 0x00, 0x00, 0x84, 0x40, 0x00, 0x00, 0x40, 0x00, 0x00, 0x00,
  0x85, 0x01, 0x49, 0x00, 0x06, 0x00, 0x00, 0x00, 0x24, 0x40, 0x00, 0x00,
  0x01, 0x00, 0x00, 0x00, 0x0f, 0x01, 0x00, 0x00, 0x00, 0x40, 0x00, 0x00,
  0x80, 0x05, 0x00, 0x00, 0x06, 0x40, 0x00, 0x00, 0x04, 0x00, 0x00, 0x00,
  0x05, 0x40, 0x00, 0x00, 0x04, 0x00, 0x00, 0x00, 0x04, 0x40, 0x00, 0x00,
  0x04, 0x00, 0x00, 0x00, 0x05, 0x01, 0x09, 0x00, 0x80, 0x40, 0x00, 0x00,
  0xc0, 0x00, 0x00, 0x00, 0x06, 0x00, 0x02, 0x00, 0x24, 0x40, 0x1f, 0x00,
  0x00, 0x00, 0x00, 0x40, 0x0f, 0x01, 0x01, 0x00, 0x00, 0x40, 0x00, 0x00,
  0x00, 0x01, 0x00, 0x00, 0x06, 0x40, 0x00, 0x00, 0x40, 0x00, 0x00, 0x00,
  0x05, 0x40, 0x00, 0x00, 0x40, 0x00, 0x00, 0x00, 0x04, 0x40, 0x00, 0x00,
  0x40, 0x00, 0x00, 0x00, 0x05, 0x01, 0x49, 0x00, 0x06, 0x00, 0x00, 0x00,
  0x24, 0x40, 0x00, 0x00, 0x01, 0x00, 0x00, 0x00, 0x00, 0x40, 0x00, 0x00,
  0xc0, 0x00, 0x00, 0x00, 0x18, 0x01, 0xfe, 0xff, 0x26, 0x01, 0x7e, 0xff,
  0x27, 0x01, 0x7d, 0x00, 0x8f, 0x01, 0x00, 0x00, 0x80, 0x40, 0x00, 0x00,
  0x90, 0x05, 0x00, 0x00, 0x86, 0x40, 0x00, 0x00, 0x04, 0x00, 0x00, 0x00,
  0x85, 0x40, 0x00, 0x00, 0x04, 0x00, 0x00, 0x00, 0x84, 0x40, 0x00, 0x00,
  0x04, 0x00, 0x00, 0x00, 0x85, 0x01, 0x09, 0x00, 0x06, 0x00, 0x00, 0x00,
  0x00, 0x40, 0x00, 0x00, 0x00, 0x01, 0x00, 0x00, 0x18, 0x01, 0x00, 0x00,
  0x26, 0x01, 0x80, 0xff, 0x27, 0x01, 0x7f, 0x00, 0x8f, 0x01, 0x01, 0x00,
  0x80, 0x40, 0x00, 0x00, 0xc0, 0x00, 0x00, 0x00, 0x86, 0x40, 0x00, 0x00,
  0x40, 0x00, 0x00, 0x00, 0x85, 0x40, 0x00, 0x00, 0x40, 0x00, 0x00, 0x00,
  0x84, 0x40, 0x00, 0x00, 0x40, 0x00, 0x00, 0x00, 0x85, 0x01, 0x49, 0x00,
  0x06, 0x00, 0x01, 0x00, 0x24, 0x40, 0x1f, 0x00, 0x00, 0x00, 0x00, 0x40,
  0x00, 0x40, 0x00, 0x00, 0xc0, 0x00, 0x00, 0x00, 0x10, 0x40, 0x00, 0x00,
  0x00, 0x01, 0x00, 0x00, 0x80, 0x40, 0x00, 0x00, 0x80, 0x00, 0x00, 0x00,
  0x06, 0x00, 0x00, 0x00, 0x24, 0x40, 0x00, 0x00, 0x01, 0x00, 0x00, 0x00,
  0x0f, 0x01, 0x00, 0x00, 0x00, 0x40, 0x00, 0x00, 0x80, 0x05, 0x00, 0x00,
  0x06, 0x40, 0x00, 0x00, 0x04, 0x00, 0x00, 0x00, 0x05, 0x40, 0x00, 0x00,
  0x04, 0x00, 0x00, 0x00, 0x04, 0x40, 0x00, 0x00, 0x04, 0x00, 0x00, 0x00,
  0x05, 0x01, 0x09, 0x00, 0x80, 0x40, 0x00, 0x00, 0x00, 0x01, 0x00, 0x00,
  0x06, 0x00, 0x02, 0x00, 0x24, 0x40, 0x1f, 0x00, 0x00, 0x00, 0x00, 0x40,
  0x0f, 0x01, 0x01, 0x00, 0x00, 0x40, 0x00, 0x00, 0xc0, 0x00, 0x00, 0x00,
  0x06, 0x40, 0x00, 0x00, 0x40, 0x00, 0x00, 0x00, 0x05, 0x40, 0x00, 0x00,
  0x40, 0x00, 0x00, 0x00, 0x04, 0x40, 0x00, 0x00, 0x40, 0x00, 0x00, 0x00,
  0x05, 0x01, 0x49, 0x00, 0x06, 0x00, 0x00, 0x00, 0x24, 0x40, 0x00, 0x00,
  0x01, 0x00, 0x00, 0x00, 0x00, 0x40, 0x00, 0x00, 0x00, 0x01, 0x00, 0x00,
  0x18, 0x01, 0xfe, 0xff, 0x26, 0x01, 0x7e, 0xff, 0x27, 0x01, 0x7d, 0x00,
  0x8f, 0x01, 0x00, 0x00, 0x80, 0x40, 0x00, 0x00, 0x90, 0x05, 0x00, 0x00,
  0x86, 0x40, 0x00, 0x00, 0x04, 0x00, 0x00, 0x00, 0x85, 0x40, 0x00, 0x00,
  0x04, 0x00, 0x00, 0x00, 0x84, 0x40, 0x00, 0x00, 0x04, 0x00, 0x00, 0x00,
  0x85, 0x01, 0x09, 0x00, 0x06, 0x00, 0x00, 0x00, 0x00, 0x40, 0x00, 0x00,
  0xc0, 0x00, 0x00, 0x00, 0x18, 0x01, 0x00, 0x00, 0x26, 0x01, 0x80, 0xff,
  0x27, 0x01, 0x7f, 0x00, 0x8f, 0x01, 0x01, 0x00, 0x80, 0x40, 0x00, 0x00,
  0x00, 0x01, 0x00, 0x00, 0x86, 0x40, 0x00, 0x00, 0x40, 0x00, 0x00, 0x00,
  0x85, 0x40, 0x00, 0x00, 0x40, 0x00, 0x00, 0x00, 0x84, 0x40, 0x00, 0x00,
  0x40, 0x00, 0x00, 0x00, 0x85, 0x01, 0x49, 0x00, 0x06, 0x00, 0x01, 0x00,
  0x24, 0x40, 0x1f, 0x00, 0x00, 0x00, 0x00, 0x40, 0x00, 0x40, 0x00, 0x00,
  0x00, 0x01, 0x00, 0x00, 0x10, 0x40, 0x00, 0x00, 0xc0, 0x00, 0x00, 0x00,
  0x80, 0x40, 0x00, 0x00, 0x80, 0x00, 0x00, 0x00, 0x06, 0x00, 0x00, 0x00,
  0x24, 0x40, 0x00, 0x00, 0x01, 0x00, 0x00, 0x00, 0x0f, 0x01, 0x00, 0x00,
  0x00, 0x40, 0x00, 0x00, 0x80, 0x05, 0x00, 0x00, 0x06, 0x40, 0x00, 0x00,
  0x04, 0x00, 0x00, 0x00, 0x05, 0x40, 0x00, 0x00, 0x04, 0x00, 0x00, 0x00,
  0x04, 0x40, 0x00, 0x00, 0x04, 0x00, 0x00, 0x00, 0x05, 0x01, 0x09, 0x00,
  0x80, 0x40, 0x00, 0x00, 0xc0, 0x00, 0x00, 0x00, 0x06, 0x00, 0x02, 0x00,
  0x24, 0x40, 0x1f, 0x00, 0x00, 0x00, 0x00, 0x40, 0x0f, 0x01, 0x01, 0x00,
  0x00, 0x40, 0x00, 0x00, 0x00, 0x01, 0x00, 0x00, 0x06, 0x40, 0x00, 0x00,
  0x40, 0x00, 0x00, 0x00, 0x05, 0x40, 0x00, 0x00, 0x40, 0x00, 0x00, 0x00,
  0x04, 0x40, 0x00, 0x00, 0x40, 0x00, 0x00, 0x00, 0x05, 0x01, 0x49, 0x00,
  0x06, 0x00, 0x00, 0x00, 0x24, 0x40, 0x00, 0x00, 0x01, 0x00, 0x00, 0x00,
  0x00, 0x40, 0x00, 0x00, 0xc0, 0x00, 0x00, 0x00, 0x18, 0x01, 0xfe, 0xff,
  0x26, 0x01, 0x7e, 0xff, 0x27, 0x01, 0x7d, 0x00, 0x8f, 0x01, 0x00, 0x00,
  0x80, 0x40, 0x00, 0x00, 0x90, 0x05, 0x00, 0x00, 0x86, 0x40, 0x00, 0x00,
  0x04, 0x00, 0x00, 0x00, 0x85, 0x40, 0x00, 0x00, 0x04, 0x00, 0x00, 0x00,
  0x84, 0x40, 0x00, 0x00, 0x04, 0x00, 0x00, 0x00, 0x85, 0x01, 0x09, 0x00,
  0x06, 0x00, 0x00, 0x00, 0x00, 0x40, 0x00, 0x00, 0x00, 0x01, 0x00, 0x00,
  0x18, 0x01, 0x00, 0x00, 0x26, 0x01, 0x80, 0xff, 0x27, 0x01, 0x7f, 0x00,
  0x8f, 0x01, 0x01, 0x00, 0x80, 0x40, 0x00, 0x00, 0xc0, 0x00, 0x00, 0x00,
  0x86, 0x40, 0x00, 0x00, 0x40, 0x00, 0x00, 0x00, 0x85, 0x40, 0x00, 0x00,
  0x40, 0x00, 0x00, 0x00, 0x84, 0x40, 0x00, 0x00, 0x40, 0x00, 0x00, 0x00,
  0x85, 0x01, 0x49, 0x00, 0x06, 0x00, 0x01, 0x00, 0x00, 0x40, 0x00, 0x00,
  0xc0, 0x00, 0x00, 0x00, 0x8f, 0x01, 0x00, 0x00, 0x80, 0x40, 0x00, 0x00,
  0xa0, 0x05, 0x00, 0x00, 0x86, 0x40, 0x00, 0x00, 0x04, 0x00, 0x00, 0x00,
  0x85, 0x40, 0x00, 0x00, 0x04, 0x00, 0x00, 0x00, 0x84, 0x40, 0x00, 0x00,
  0x04, 0x00, 0x00, 0x00, 0x85, 0x01, 0x09, 0x00, 0x06, 0x00, 0x00, 0x00,
  0x24, 0x40, 0x1f, 0x00, 0x00, 0x00, 0x00, 0x40, 0x00, 0x40, 0x00, 0x00,
  0x00, 0x00, 0x00, 0x00, 0x04, 0x01, 0x02, 0x00, 0x10, 0x40, 0x00, 0x00,
  0x80, 0x00, 0x00, 0x00, 0x13, 0x01, 0x02, 0x00, 0x8f, 0x01, 0x01, 0x00,
  0x80, 0x40, 0x00, 0x00, 0xc0, 0x00, 0x00, 0x00, 0x86, 0x40, 0x00, 0x00,
  0x40, 0x00, 0x00, 0x00, 0x85, 0x40, 0x00, 0x00, 0x40, 0x00, 0x00, 0x00,
  0x84, 0x40, 0x00, 0x00, 0x40, 0x00, 0x00, 0x00, 0x85, 0x01, 0x49, 0x00,
  0x80, 0x01, 0x04, 0x00, 0x06, 0x00, 0x00, 0x00, 0x24, 0x40, 0x00, 0x00,
  0x01, 0x00, 0x00, 0x00, 0x00, 0x40, 0x00, 0x00, 0x80, 0x00, 0x00, 0x00,
  0x10, 0x40, 0x00, 0x00, 0x00, 0x00, 0x00, 0x00, 0x16, 0x40, 0x00, 0x00,
  0x01, 0x00, 0x00, 0x00, 0x15, 0x40, 0x00, 0x00, 0x03, 0x00, 0x00, 0x00,
  0x14, 0x40, 0x00, 0x00, 0x03, 0x00, 0x00, 0x00, 0x18, 0x01, 0x80, 0xff,
  0x14, 0x01, 0x01, 0x80, 0x80, 0x40, 0x00, 0x00, 0x40, 0x00, 0x00, 0x00,
  0x06, 0x00, 0x08, 0x00, 0x00, 0x00, 0xff, 0xff, 0x04, 0x00, 0x06, 0x00,
  0x04, 0x00, 0x00, 0x00, 0x00, 0x00, 0x06, 0x00, 0x08, 0x00, 0x04, 0x00,
  0x06, 0x00, 0x00, 0x00, 0x04, 0x00, 0x00, 0x00, 0x00, 0x00, 0x00, 0x00,
  0x01, 0x00, 0x00, 0x00, 0x10, 0x00, 0x00, 0x00, 0x0c, 0x00, 0x14, 0x00,
  0x10, 0x00, 0x0c, 0x00, 0x08, 0x00, 0x04, 0x00, 0x0c, 0x00, 0x00, 0x00,
  0x10, 0x00, 0x00, 0x00, 0x74, 0x00, 0x00, 0x00, 0x78, 0x00, 0x00, 0x00,
  0x7c, 0x00, 0x00, 0x00, 0x01, 0x00, 0x00, 0x00, 0x1c, 0x00, 0x00, 0x00,
  0x00, 0x00, 0x16, 0x00, 0x18, 0x00, 0x00, 0x00, 0x14, 0x00, 0x10, 0x00,
  0x00, 0x00, 0x00, 0x00, 0x08, 0x00, 0x00, 0x00, 0x04, 0x00, 0x0c, 0x00,
  0x16, 0x00, 0x00, 0x00, 0x14, 0x00, 0x00, 0x00, 0x14, 0x00, 0x00, 0x00,
  0x18, 0x00, 0x00, 0x00, 0x18, 0x00, 0x00, 0x00, 0x1c, 0x00, 0x00, 0x00,
  0x00, 0x00, 0x00, 0x00, 0x03, 0x00, 0x00, 0x00, 0x01, 0x04, 0x01, 0x00,
  0x00, 0x00, 0x00, 0x00, 0x01, 0x00, 0x00, 0x00, 0x00, 0x00, 0x00, 0x00,
  0x05, 0x00, 0x00, 0x00, 0x01, 0x00, 0x00, 0x00, 0x02, 0x00, 0x00, 0x00,
  0x03, 0x00, 0x00, 0x00, 0x04, 0x00, 0x00, 0x00, 0x05, 0x00, 0x00, 0x00,
  0x01, 0x00, 0x00, 0x00, 0x00, 0x00, 0x00, 0x00, 0x01, 0x00, 0x00, 0x00,
  0x05, 0x00, 0x00, 0x00, 0x06, 0x00, 0x00, 0x00, 0x74, 0x01, 0x00, 0x00,
  0x24, 0x01, 0x00, 0x00, 0xe0, 0x00, 0x00, 0x00, 0xa8, 0x00, 0x00, 0x00,
  0x60, 0x00, 0x00, 0x00, 0x04, 0x00, 0x00, 0x00, 0xb2, 0xfe, 0xff, 0xff,
  0x10, 0x00, 0x00, 0x00, 0x2c, 0x00, 0x00, 0x00, 0x00, 0x00, 0x00, 0x09,
  0x3c, 0x00, 0x00, 0x00, 0xa4, 0xfe, 0xff, 0xff, 0x08, 0x00, 0x00, 0x00,
  0x10, 0x00, 0x00, 0x00, 0x01, 0x00, 0x00, 0x00, 0x13, 0x00, 0x00, 0x00,
  0x00, 0x00, 0x00, 0x00, 0x01, 0x00, 0x00, 0x00, 0x89, 0x0d, 0x42, 0x3d,
  0x13, 0x00, 0x00, 0x00, 0x73, 0x65, 0x72, 0x76, 0x69, 0x6e, 0x67, 0x5f,
  0x64, 0x65, 0x66, 0x61, 0x75, 0x6c, 0x74, 0x5f, 0x78, 0x3a, 0x30, 0x00,
  0x02, 0x00, 0x00, 0x00, 0x01, 0x00, 0x00, 0x00, 0x8a, 0x02, 0x00, 0x00,
  0xc8, 0xff, 0xff, 0xff, 0x0c, 0x00, 0x00, 0x00, 0x00, 0x00, 0x00, 0x03,
  0x24, 0x00, 0x00, 0x00, 0x19, 0x00, 0x00, 0x00, 0x6d, 0x61, 0x69, 0x6e,
  0x5f, 0x73, 0x70, 0x6c, 0x69, 0x74, 0x5f, 0x31, 0x5f, 0x73, 0x63, 0x72,
  0x61, 0x74, 0x63, 0x68, 0x5f, 0x66, 0x61, 0x73, 0x74, 0x00, 0x00, 0x00,
  0x01, 0x00, 0x00, 0x00, 0x00, 0x06, 0x00, 0x00, 0x0c, 0x00, 0x10, 0x00,
  0x0c, 0x00, 0x0b, 0x00, 0x00, 0x00, 0x04, 0x00, 0x0c, 0x00, 0x00, 0x00,
  0x0c, 0x00, 0x00, 0x00, 0x00, 0x00, 0x00, 0x03, 0x20, 0x00, 0x00, 0x00,
  0x14, 0x00, 0x00, 0x00, 0x6d, 0x61, 0x69, 0x6e, 0x5f, 0x73, 0x70, 0x6c,
  0x69, 0x74, 0x5f, 0x31, 0x5f, 0x73, 0x63, 0x72, 0x61, 0x74, 0x63, 0x68,
  0x00, 0x00, 0x00, 0x00, 0x01, 0x00, 0x00, 0x00, 0x00, 0x06, 0x00, 0x00,
  0xcc, 0xff, 0xff, 0xff, 0x10, 0x00, 0x00, 0x00, 0x03, 0x00, 0x00, 0x00,
  0x00, 0x00, 0x00, 0x03, 0x1c, 0x00, 0x00, 0x00, 0x12, 0x00, 0x00, 0x00,
  0x6d, 0x61, 0x69, 0x6e, 0x5f, 0x73, 0x70, 0x6c, 0x69, 0x74, 0x5f, 0x31,
  0x5f, 0x66, 0x6c, 0x61, 0x73, 0x68, 0x00, 0x00, 0x01, 0x00, 0x00, 0x00,
  0x30, 0x0d, 0x00, 0x00, 0x0c, 0x00, 0x14, 0x00, 0x10, 0x00, 0x0f, 0x00,
  0x08, 0x00, 0x04, 0x00, 0x0c, 0x00, 0x00, 0x00, 0x10, 0x00, 0x00, 0x00,
  0x02, 0x00, 0x00, 0x00, 0x00, 0x00, 0x00, 0x03, 0x24, 0x00, 0x00, 0x00,
  0x1b, 0x00, 0x00, 0x00, 0x6d, 0x61, 0x69, 0x6e, 0x5f, 0x73, 0x70, 0x6c,
  0x69, 0x74, 0x5f, 0x31, 0x5f, 0x63, 0x6f, 0x6d, 0x6d, 0x61, 0x6e, 0x64,
  0x5f, 0x73, 0x74, 0x72, 0x65, 0x61, 0x6d, 0x00, 0x01, 0x00, 0x00, 0x00,
  0x64, 0x0c, 0x00, 0x00, 0x00, 0x00, 0x0e, 0x00, 0x14, 0x00, 0x10, 0x00,
  0x0f, 0x00, 0x00, 0x00, 0x08, 0x00, 0x04, 0x00, 0x0e, 0x00, 0x00, 0x00,
  0x1c, 0x00, 0x00, 0x00, 0x3c, 0x00, 0x00, 0x00, 0x00, 0x00, 0x00, 0x09,
  0x58, 0x00, 0x00, 0x00, 0x0c, 0x00, 0x0c, 0x00, 0x00, 0x00, 0x00, 0x00,
  0x08, 0x00, 0x04, 0x00, 0x0c, 0x00, 0x00, 0x00, 0x08, 0x00, 0x00, 0x00,
  0x14, 0x00, 0x00, 0x00, 0x01, 0x00, 0x00, 0x00, 0x80, 0xff, 0xff, 0xff,
  0xff, 0xff, 0xff, 0xff, 0x00, 0x00, 0x00, 0x00, 0x01, 0x00, 0x00, 0x00,
  0x00, 0x00, 0x80, 0x3b, 0x1d, 0x00, 0x00, 0x00, 0x53, 0x74, 0x61, 0x74,
  0x65, 0x66, 0x75, 0x6c, 0x50, 0x61, 0x72, 0x74, 0x69, 0x74, 0x69, 0x6f,
  0x6e, 0x65, 0x64, 0x43, 0x61, 0x6c, 0x6c, 0x3a, 0x30, 0x5f, 0x63, 0x70,
  0x75, 0x00, 0x00, 0x00, 0x02, 0x00, 0x00, 0x00, 0x01, 0x00, 0x00, 0x00,
  0x03, 0x00, 0x00, 0x00, 0x0e, 0x00, 0x00, 0x00, 0x56, 0x65, 0x6c, 0x61,
  0x20, 0x4f, 0x70, 0x74, 0x69, 0x6d, 0x69, 0x73, 0x65, 0x64, 0x00, 0x00,
  0x01, 0x00, 0x00, 0x00, 0x10, 0x00, 0x00, 0x00, 0x0c, 0x00, 0x10, 0x00,
  0x0f, 0x00, 0x04, 0x00, 0x00, 0x00, 0x08, 0x00, 0x0c, 0x00, 0x00, 0x00,
  0x0c, 0x00, 0x00, 0x00, 0x20, 0x00, 0x00, 0x00, 0x00, 0x00, 0x00, 0x20,
  0x07, 0x00, 0x00, 0x00, 0x65, 0x74, 0x68, 0x6f, 0x73, 0x2d, 0x75, 0x00
};
unsigned int trained_tflite_len = 7584;

#endif // _EI_CLASSIFIER_TFLITE_TRAINED_H_

#else
#error "Please define a macro choosing a valid Ethos configuration (either EI_CONFIG_ETHOS_U55_256 or EI_CONFIG_ETHOS_U55_128)"
#endif
